{
  "version": "1.0",
  "truncation": null,
  "padding": null,
  "added_tokens": [
    {
      "id": 0,
      "content": "<pad>",
      "single_word": false,
      "lstrip": false,
      "rstrip": false,
      "normalized": false,
      "special": true
    },
    {
      "id": 1,
      "content": "<unk>",
      "single_word": false,
      "lstrip": false,
      "rstrip": false,
      "normalized": false,
      "special": true
    },
    {
      "id": 2,
      "content": "<start>",
      "single_word": false,
      "lstrip": false,
      "rstrip": false,
      "normalized": false,
      "special": true
    },
    {
      "id": 3,
      "content": "<sep>",
      "single_word": false,
      "lstrip": false,
      "rstrip": false,
      "normalized": false,
      "special": true
    },
    {
      "id": 4,
      "content": "<end>",
      "single_word": false,
      "lstrip": false,
      "rstrip": false,
      "normalized": false,
      "special": true
    }
  ],
  "normalizer": null,
  "pre_tokenizer": {
    "type": "Whitespace"
  },
  "post_processor": null,
  "decoder": null,
  "model": {
    "type": "BPE",
    "dropout": null,
    "unk_token": null,
    "continuing_subword_prefix": null,
    "end_of_word_suffix": null,
    "fuse_unk": false,
    "byte_fallback": false,
    "ignore_merges": false,
    "vocab": {
      "<pad>": 0,
      "<unk>": 1,
      "<start>": 2,
      "<sep>": 3,
      "<end>": 4,
      "!": 5,
      "\"": 6,
      "#": 7,
      "$": 8,
      "%": 9,
      "&": 10,
      "'": 11,
      "(": 12,
      ")": 13,
      "*": 14,
      "+": 15,
      ",": 16,
      "-": 17,
      ".": 18,
      "/": 19,
      "0": 20,
      "1": 21,
      "2": 22,
      "3": 23,
      "4": 24,
      "5": 25,
      "6": 26,
      "7": 27,
      "8": 28,
      "9": 29,
      ":": 30,
      ";": 31,
      "<": 32,
      "=": 33,
      ">": 34,
      "?": 35,
      "@": 36,
      "A": 37,
      "B": 38,
      "C": 39,
      "D": 40,
      "E": 41,
      "F": 42,
      "G": 43,
      "H": 44,
      "I": 45,
      "J": 46,
      "K": 47,
      "L": 48,
      "M": 49,
      "N": 50,
      "O": 51,
      "P": 52,
      "Q": 53,
      "R": 54,
      "S": 55,
      "T": 56,
      "U": 57,
      "V": 58,
      "W": 59,
      "X": 60,
      "Y": 61,
      "Z": 62,
      "[": 63,
      "\\": 64,
      "]": 65,
      "^": 66,
      "_": 67,
      "`": 68,
      "a": 69,
      "b": 70,
      "c": 71,
      "d": 72,
      "e": 73,
      "f": 74,
      "g": 75,
      "h": 76,
      "i": 77,
      "j": 78,
      "k": 79,
      "l": 80,
      "m": 81,
      "n": 82,
      "o": 83,
      "p": 84,
      "q": 85,
      "r": 86,
      "s": 87,
      "t": 88,
      "u": 89,
      "v": 90,
      "w": 91,
      "x": 92,
      "y": 93,
      "z": 94,
      "{": 95,
      "|": 96,
      "}": 97,
      "~": 98,
      "": 99,
      "": 100,
      "": 101,
      "": 102,
      "": 103,
      "¡": 104,
      "£": 105,
      "§": 106,
      "«": 107,
      "¬": 108,
      "®": 109,
      "°": 110,
      "±": 111,
      "²": 112,
      "³": 113,
      "´": 114,
      "·": 115,
      "»": 116,
      "¿": 117,
      "Â": 118,
      "Æ": 119,
      "É": 120,
      "Ê": 121,
      "Ë": 122,
      "Í": 123,
      "Ð": 124,
      "Ñ": 125,
      "×": 126,
      "Ø": 127,
      "á": 128,
      "ã": 129,
      "ä": 130,
      "ç": 131,
      "è": 132,
      "é": 133,
      "ê": 134,
      "í": 135,
      "ó": 136,
      "ô": 137,
      "÷": 138,
      "ú": 139,
      "ü": 140,
      "ć": 141,
      "č": 142,
      "ı": 143,
      "ř": 144,
      "Ž": 145,
      "ˊ": 146,
      "ˋ": 147,
      "ˎ": 148,
      "ˏ": 149,
      "˗": 150,
      "̧": 151,
      "Γ": 152,
      "Ε": 153,
      "Λ": 154,
      "Σ": 155,
      "Ω": 156,
      "ά": 157,
      "ή": 158,
      "α": 159,
      "β": 160,
      "γ": 161,
      "δ": 162,
      "θ": 163,
      "ι": 164,
      "κ": 165,
      "λ": 166,
      "μ": 167,
      "ν": 168,
      "ο": 169,
      "π": 170,
      "ρ": 171,
      "ς": 172,
      "τ": 173,
      "φ": 174,
      "ψ": 175,
      "ό": 176,
      "Н": 177,
      "е": 178,
      "к": 179,
      "о": 180,
      "р": 181,
      "с": 182,
      "א": 183,
      "ד": 184,
      "ה": 185,
      "ו": 186,
      "כ": 187,
      "ל": 188,
      "מ": 189,
      "נ": 190,
      "ץ": 191,
      "ר": 192,
      "ש": 193,
      "ת": 194,
      "،": 195,
      "؟": 196,
      "آ": 197,
      "ا": 198,
      "ب": 199,
      "ت": 200,
      "ج": 201,
      "ح": 202,
      "خ": 203,
      "د": 204,
      "ذ": 205,
      "ر": 206,
      "ز": 207,
      "س": 208,
      "ش": 209,
      "ص": 210,
      "ط": 211,
      "ظ": 212,
      "ع": 213,
      "غ": 214,
      "ف": 215,
      "ق": 216,
      "ل": 217,
      "م": 218,
      "ن": 219,
      "ه": 220,
      "و": 221,
      "ي": 222,
      "١": 223,
      "پ": 224,
      "چ": 225,
      "ک": 226,
      "گ": 227,
      "ی": 228,
      "ँ": 229,
      "ं": 230,
      "आ": 231,
      "ए": 232,
      "क": 233,
      "ग": 234,
      "झ": 235,
      "ण": 236,
      "त": 237,
      "प": 238,
      "म": 239,
      "य": 240,
      "र": 241,
      "ल": 242,
      "व": 243,
      "ह": 244,
      "ा": 245,
      "ि": 246,
      "ु": 247,
      "ू": 248,
      "े": 249,
      "ै": 250,
      "ो": 251,
      "्": 252,
      "।": 253,
      "খ": 254,
      "ব": 255,
      "ভ": 256,
      "ল": 257,
      "া": 258,
      "ু": 259,
      "ো": 260,
      "న": 261,
      "మ": 262,
      "ష": 263,
      "ి": 264,
      "Ἑ": 265,
      "​": 266,
      "‎": 267,
      "–": 268,
      "—": 269,
      "‘": 270,
      "’": 271,
      "“": 272,
      "”": 273,
      "•": 274,
      "…": 275,
      "′": 276,
      "⁄": 277,
      "⁴": 278,
      "⁺": 279,
      "⁻": 280,
      "₁": 281,
      "₂": 282,
      "₃": 283,
      "₄": 284,
      "₋": 285,
      "ₙ": 286,
      "€": 287,
      "→": 288,
      "↔": 289,
      "∀": 290,
      "∃": 291,
      "√": 292,
      "∠": 293,
      "∧": 294,
      "∨": 295,
      "∩": 296,
      "∪": 297,
      "∫": 298,
      "∼": 299,
      "≈": 300,
      "≠": 301,
      "≡": 302,
      "≤": 303,
      "≥": 304,
      "⊆": 305,
      "█": 306,
      "■": 307,
      "□": 308,
      "△": 309,
      "◆": 310,
      "☀": 311,
      "★": 312,
      "☆": 313,
      "☕": 314,
      "☹": 315,
      "✓": 316,
      "✔": 317,
      "✨": 318,
      "❤": 319,
      "ト": 320,
      "ン": 321,
      "ㄱ": 322,
      "ㄴ": 323,
      "ㄷ": 324,
      "ㄹ": 325,
      "ㅇ": 326,
      "ㅈ": 327,
      "ㅋ": 328,
      "ㅌ": 329,
      "ㅎ": 330,
      "ㅜ": 331,
      "ㅠ": 332,
      "ㅡ": 333,
      "㎗": 334,
      "㎝": 335,
      "㎠": 336,
      "㎡": 337,
      "世": 338,
      "中": 339,
      "京": 340,
      "作": 341,
      "使": 342,
      "內": 343,
      "力": 344,
      "北": 345,
      "南": 346,
      "哥": 347,
      "國": 348,
      "坪": 349,
      "子": 350,
      "孫": 351,
      "學": 352,
      "客": 353,
      "島": 354,
      "崵": 355,
      "州": 356,
      "市": 357,
      "帝": 358,
      "庫": 359,
      "律": 360,
      "德": 361,
      "性": 362,
      "情": 363,
      "成": 364,
      "排": 365,
      "推": 366,
      "攻": 367,
      "政": 368,
      "故": 369,
      "數": 370,
      "文": 371,
      "旋": 372,
      "核": 373,
      "武": 374,
      "気": 375,
      "水": 376,
      "洋": 377,
      "済": 378,
      "火": 379,
      "然": 380,
      "界": 381,
      "略": 382,
      "省": 383,
      "神": 384,
      "策": 385,
      "紫": 386,
      "美": 387,
      "群": 388,
      "者": 389,
      "聲": 390,
      "虛": 391,
      "街": 392,
      "袁": 393,
      "观": 394,
      "語": 395,
      "譞": 396,
      "趙": 397,
      "軍": 398,
      "都": 399,
      "醫": 400,
      "金": 401,
      "鋪": 402,
      "韓": 403,
      "風": 404,
      "가": 405,
      "각": 406,
      "간": 407,
      "갇": 408,
      "갈": 409,
      "갉": 410,
      "감": 411,
      "갑": 412,
      "값": 413,
      "갓": 414,
      "갔": 415,
      "강": 416,
      "갖": 417,
      "같": 418,
      "갚": 419,
      "갛": 420,
      "개": 421,
      "객": 422,
      "갠": 423,
      "갤": 424,
      "갬": 425,
      "갭": 426,
      "갯": 427,
      "갱": 428,
      "갸": 429,
      "걀": 430,
      "걍": 431,
      "걔": 432,
      "걘": 433,
      "거": 434,
      "걱": 435,
      "건": 436,
      "걷": 437,
      "걸": 438,
      "검": 439,
      "겁": 440,
      "것": 441,
      "겉": 442,
      "겊": 443,
      "게": 444,
      "겐": 445,
      "겔": 446,
      "겜": 447,
      "겟": 448,
      "겠": 449,
      "겨": 450,
      "격": 451,
      "겪": 452,
      "견": 453,
      "결": 454,
      "겸": 455,
      "겹": 456,
      "겼": 457,
      "경": 458,
      "곁": 459,
      "계": 460,
      "곗": 461,
      "고": 462,
      "곡": 463,
      "곤": 464,
      "곧": 465,
      "골": 466,
      "곰": 467,
      "곱": 468,
      "곳": 469,
      "공": 470,
      "곶": 471,
      "과": 472,
      "곽": 473,
      "관": 474,
      "괄": 475,
      "괌": 476,
      "괏": 477,
      "광": 478,
      "괘": 479,
      "괜": 480,
      "괴": 481,
      "굉": 482,
      "교": 483,
      "굣": 484,
      "구": 485,
      "국": 486,
      "군": 487,
      "굳": 488,
      "굴": 489,
      "굵": 490,
      "굶": 491,
      "굼": 492,
      "굽": 493,
      "굿": 494,
      "궁": 495,
      "궂": 496,
      "권": 497,
      "궐": 498,
      "궤": 499,
      "궵": 500,
      "귀": 501,
      "귁": 502,
      "귄": 503,
      "귈": 504,
      "귐": 505,
      "귓": 506,
      "규": 507,
      "균": 508,
      "귤": 509,
      "그": 510,
      "극": 511,
      "근": 512,
      "글": 513,
      "긁": 514,
      "금": 515,
      "급": 516,
      "긋": 517,
      "긍": 518,
      "기": 519,
      "긱": 520,
      "긴": 521,
      "길": 522,
      "김": 523,
      "깁": 524,
      "깃": 525,
      "깅": 526,
      "깊": 527,
      "까": 528,
      "깍": 529,
      "깎": 530,
      "깐": 531,
      "깔": 532,
      "깜": 533,
      "깝": 534,
      "깡": 535,
      "깥": 536,
      "깨": 537,
      "깬": 538,
      "깰": 539,
      "깼": 540,
      "꺄": 541,
      "꺠": 542,
      "꺼": 543,
      "꺾": 544,
      "껄": 545,
      "껌": 546,
      "껍": 547,
      "껏": 548,
      "껐": 549,
      "껑": 550,
      "께": 551,
      "껴": 552,
      "꼈": 553,
      "꼬": 554,
      "꼭": 555,
      "꼰": 556,
      "꼴": 557,
      "꼼": 558,
      "꼽": 559,
      "꼿": 560,
      "꽁": 561,
      "꽂": 562,
      "꽃": 563,
      "꽉": 564,
      "꽝": 565,
      "꽤": 566,
      "꽥": 567,
      "꾀": 568,
      "꾸": 569,
      "꾹": 570,
      "꾼": 571,
      "꿀": 572,
      "꿇": 573,
      "꿈": 574,
      "꿉": 575,
      "꿋": 576,
      "꿔": 577,
      "꿨": 578,
      "꿩": 579,
      "꿰": 580,
      "뀌": 581,
      "뀐": 582,
      "뀔": 583,
      "뀜": 584,
      "뀝": 585,
      "끄": 586,
      "끈": 587,
      "끊": 588,
      "끌": 589,
      "끓": 590,
      "끔": 591,
      "끕": 592,
      "끗": 593,
      "끝": 594,
      "끼": 595,
      "끽": 596,
      "낀": 597,
      "낄": 598,
      "낌": 599,
      "낍": 600,
      "낑": 601,
      "나": 602,
      "낙": 603,
      "낚": 604,
      "난": 605,
      "낟": 606,
      "날": 607,
      "낡": 608,
      "남": 609,
      "납": 610,
      "낫": 611,
      "났": 612,
      "낭": 613,
      "낮": 614,
      "낯": 615,
      "낱": 616,
      "낳": 617,
      "내": 618,
      "낵": 619,
      "낸": 620,
      "낼": 621,
      "냄": 622,
      "냅": 623,
      "냇": 624,
      "냈": 625,
      "냉": 626,
      "냐": 627,
      "냥": 628,
      "너": 629,
      "넉": 630,
      "넋": 631,
      "넌": 632,
      "널": 633,
      "넓": 634,
      "넘": 635,
      "넙": 636,
      "넛": 637,
      "넜": 638,
      "넝": 639,
      "넣": 640,
      "네": 641,
      "넥": 642,
      "넨": 643,
      "넬": 644,
      "넴": 645,
      "넵": 646,
      "넷": 647,
      "넸": 648,
      "넹": 649,
      "녀": 650,
      "녁": 651,
      "년": 652,
      "념": 653,
      "녔": 654,
      "녕": 655,
      "녘": 656,
      "노": 657,
      "녹": 658,
      "논": 659,
      "놀": 660,
      "놈": 661,
      "놉": 662,
      "놋": 663,
      "농": 664,
      "높": 665,
      "놓": 666,
      "놔": 667,
      "놨": 668,
      "뇌": 669,
      "뇨": 670,
      "뇰": 671,
      "뇽": 672,
      "누": 673,
      "눅": 674,
      "눈": 675,
      "눌": 676,
      "눔": 677,
      "눕": 678,
      "눗": 679,
      "눠": 680,
      "눴": 681,
      "뉘": 682,
      "뉜": 683,
      "뉠": 684,
      "뉨": 685,
      "뉩": 686,
      "뉴": 687,
      "늄": 688,
      "느": 689,
      "늑": 690,
      "는": 691,
      "늘": 692,
      "늙": 693,
      "늠": 694,
      "능": 695,
      "늦": 696,
      "늪": 697,
      "늬": 698,
      "니": 699,
      "닉": 700,
      "닌": 701,
      "닐": 702,
      "님": 703,
      "닙": 704,
      "닛": 705,
      "닝": 706,
      "다": 707,
      "닥": 708,
      "닦": 709,
      "단": 710,
      "닫": 711,
      "달": 712,
      "닭": 713,
      "닮": 714,
      "닳": 715,
      "담": 716,
      "답": 717,
      "닷": 718,
      "당": 719,
      "닿": 720,
      "대": 721,
      "댁": 722,
      "댄": 723,
      "댈": 724,
      "댐": 725,
      "댑": 726,
      "댓": 727,
      "댔": 728,
      "더": 729,
      "덕": 730,
      "던": 731,
      "덜": 732,
      "덟": 733,
      "덤": 734,
      "덥": 735,
      "덧": 736,
      "덩": 737,
      "덫": 738,
      "덮": 739,
      "데": 740,
      "덱": 741,
      "덴": 742,
      "델": 743,
      "뎀": 744,
      "뎁": 745,
      "뎌": 746,
      "도": 747,
      "독": 748,
      "돈": 749,
      "돋": 750,
      "돌": 751,
      "돔": 752,
      "돕": 753,
      "돗": 754,
      "동": 755,
      "돛": 756,
      "돼": 757,
      "됐": 758,
      "되": 759,
      "된": 760,
      "될": 761,
      "됨": 762,
      "됩": 763,
      "두": 764,
      "둑": 765,
      "둔": 766,
      "둘": 767,
      "둠": 768,
      "둡": 769,
      "둥": 770,
      "둬": 771,
      "뒀": 772,
      "뒤": 773,
      "뒷": 774,
      "뒹": 775,
      "듀": 776,
      "듄": 777,
      "듈": 778,
      "듐": 779,
      "드": 780,
      "득": 781,
      "든": 782,
      "듣": 783,
      "들": 784,
      "듦": 785,
      "듬": 786,
      "듭": 787,
      "듯": 788,
      "등": 789,
      "디": 790,
      "딕": 791,
      "딘": 792,
      "딛": 793,
      "딜": 794,
      "딤": 795,
      "딥": 796,
      "딧": 797,
      "딨": 798,
      "딩": 799,
      "딪": 800,
      "따": 801,
      "딱": 802,
      "딴": 803,
      "딸": 804,
      "땀": 805,
      "땁": 806,
      "땄": 807,
      "땅": 808,
      "땋": 809,
      "때": 810,
      "땐": 811,
      "땔": 812,
      "땜": 813,
      "땠": 814,
      "땡": 815,
      "떄": 816,
      "떠": 817,
      "떡": 818,
      "떤": 819,
      "떨": 820,
      "떰": 821,
      "떴": 822,
      "떻": 823,
      "떼": 824,
      "뗄": 825,
      "뗍": 826,
      "뗏": 827,
      "또": 828,
      "똑": 829,
      "똥": 830,
      "뚜": 831,
      "뚝": 832,
      "뚤": 833,
      "뚫": 834,
      "뚱": 835,
      "뛰": 836,
      "뛴": 837,
      "뛸": 838,
      "뜀": 839,
      "뜁": 840,
      "뜨": 841,
      "뜩": 842,
      "뜬": 843,
      "뜯": 844,
      "뜰": 845,
      "뜸": 846,
      "뜹": 847,
      "뜻": 848,
      "띄": 849,
      "띈": 850,
      "띕": 851,
      "띠": 852,
      "띤": 853,
      "띱": 854,
      "라": 855,
      "락": 856,
      "란": 857,
      "랄": 858,
      "람": 859,
      "랍": 860,
      "랏": 861,
      "랐": 862,
      "랑": 863,
      "랗": 864,
      "래": 865,
      "랙": 866,
      "랜": 867,
      "랠": 868,
      "램": 869,
      "랩": 870,
      "랫": 871,
      "랬": 872,
      "랭": 873,
      "략": 874,
      "량": 875,
      "러": 876,
      "럭": 877,
      "런": 878,
      "럴": 879,
      "럼": 880,
      "럽": 881,
      "럿": 882,
      "렀": 883,
      "렁": 884,
      "렇": 885,
      "레": 886,
      "렉": 887,
      "렌": 888,
      "렐": 889,
      "렘": 890,
      "렙": 891,
      "렛": 892,
      "렝": 893,
      "려": 894,
      "력": 895,
      "련": 896,
      "렬": 897,
      "렴": 898,
      "렵": 899,
      "렷": 900,
      "렸": 901,
      "령": 902,
      "례": 903,
      "로": 904,
      "록": 905,
      "론": 906,
      "롤": 907,
      "롬": 908,
      "롭": 909,
      "롯": 910,
      "롱": 911,
      "뢰": 912,
      "료": 913,
      "룡": 914,
      "루": 915,
      "룩": 916,
      "룬": 917,
      "룰": 918,
      "룸": 919,
      "룹": 920,
      "룻": 921,
      "룽": 922,
      "뤄": 923,
      "뤘": 924,
      "뤼": 925,
      "뤽": 926,
      "류": 927,
      "륙": 928,
      "륜": 929,
      "률": 930,
      "륨": 931,
      "륭": 932,
      "르": 933,
      "륵": 934,
      "른": 935,
      "를": 936,
      "름": 937,
      "릅": 938,
      "릇": 939,
      "릉": 940,
      "릎": 941,
      "리": 942,
      "릭": 943,
      "린": 944,
      "릴": 945,
      "림": 946,
      "립": 947,
      "릿": 948,
      "링": 949,
      "마": 950,
      "막": 951,
      "만": 952,
      "많": 953,
      "말": 954,
      "맑": 955,
      "맘": 956,
      "맙": 957,
      "맛": 958,
      "망": 959,
      "맞": 960,
      "맡": 961,
      "맣": 962,
      "매": 963,
      "맥": 964,
      "맨": 965,
      "맴": 966,
      "맵": 967,
      "맷": 968,
      "맸": 969,
      "맹": 970,
      "맺": 971,
      "머": 972,
      "먹": 973,
      "먼": 974,
      "멀": 975,
      "멈": 976,
      "멋": 977,
      "멍": 978,
      "멎": 979,
      "메": 980,
      "멕": 981,
      "멘": 982,
      "멜": 983,
      "멤": 984,
      "멧": 985,
      "멩": 986,
      "며": 987,
      "면": 988,
      "멸": 989,
      "명": 990,
      "몇": 991,
      "모": 992,
      "목": 993,
      "몫": 994,
      "몬": 995,
      "몰": 996,
      "몸": 997,
      "몹": 998,
      "못": 999,
      "몽": 1000,
      "묄": 1001,
      "묘": 1002,
      "무": 1003,
      "묵": 1004,
      "묶": 1005,
      "문": 1006,
      "묻": 1007,
      "물": 1008,
      "묽": 1009,
      "뭄": 1010,
      "뭅": 1011,
      "뭇": 1012,
      "뭉": 1013,
      "뭐": 1014,
      "뭔": 1015,
      "뭘": 1016,
      "뮌": 1017,
      "뮐": 1018,
      "뮤": 1019,
      "뮬": 1020,
      "뮴": 1021,
      "므": 1022,
      "믈": 1023,
      "미": 1024,
      "믹": 1025,
      "민": 1026,
      "믿": 1027,
      "밀": 1028,
      "밈": 1029,
      "밉": 1030,
      "밋": 1031,
      "밌": 1032,
      "밍": 1033,
      "및": 1034,
      "밑": 1035,
      "바": 1036,
      "박": 1037,
      "밖": 1038,
      "반": 1039,
      "받": 1040,
      "발": 1041,
      "밝": 1042,
      "밟": 1043,
      "밤": 1044,
      "밥": 1045,
      "밧": 1046,
      "방": 1047,
      "밭": 1048,
      "배": 1049,
      "백": 1050,
      "밴": 1051,
      "밷": 1052,
      "밸": 1053,
      "뱀": 1054,
      "뱃": 1055,
      "뱅": 1056,
      "뱉": 1057,
      "뱌": 1058,
      "버": 1059,
      "벅": 1060,
      "번": 1061,
      "벌": 1062,
      "범": 1063,
      "법": 1064,
      "벗": 1065,
      "벙": 1066,
      "벚": 1067,
      "베": 1068,
      "벡": 1069,
      "벤": 1070,
      "벨": 1071,
      "벰": 1072,
      "벳": 1073,
      "벵": 1074,
      "벼": 1075,
      "벽": 1076,
      "변": 1077,
      "별": 1078,
      "볍": 1079,
      "볏": 1080,
      "볐": 1081,
      "병": 1082,
      "볕": 1083,
      "보": 1084,
      "복": 1085,
      "볶": 1086,
      "본": 1087,
      "볼": 1088,
      "봄": 1089,
      "봅": 1090,
      "봇": 1091,
      "봉": 1092,
      "봐": 1093,
      "봤": 1094,
      "뵈": 1095,
      "뵌": 1096,
      "뵐": 1097,
      "뵙": 1098,
      "부": 1099,
      "북": 1100,
      "분": 1101,
      "붇": 1102,
      "불": 1103,
      "붉": 1104,
      "붐": 1105,
      "붓": 1106,
      "붕": 1107,
      "붙": 1108,
      "뷔": 1109,
      "뷰": 1110,
      "뷴": 1111,
      "뷸": 1112,
      "븀": 1113,
      "브": 1114,
      "븐": 1115,
      "블": 1116,
      "비": 1117,
      "빅": 1118,
      "빈": 1119,
      "빌": 1120,
      "빔": 1121,
      "빕": 1122,
      "빗": 1123,
      "빙": 1124,
      "빚": 1125,
      "빛": 1126,
      "빠": 1127,
      "빡": 1128,
      "빤": 1129,
      "빨": 1130,
      "빴": 1131,
      "빵": 1132,
      "빻": 1133,
      "빼": 1134,
      "빽": 1135,
      "뺀": 1136,
      "뺄": 1137,
      "뺍": 1138,
      "뺏": 1139,
      "뺐": 1140,
      "뺑": 1141,
      "뺨": 1142,
      "뺴": 1143,
      "뻐": 1144,
      "뻑": 1145,
      "뻔": 1146,
      "뻗": 1147,
      "뻣": 1148,
      "뻤": 1149,
      "뻥": 1150,
      "뼈": 1151,
      "뼉": 1152,
      "뼘": 1153,
      "뽀": 1154,
      "뽈": 1155,
      "뽐": 1156,
      "뽑": 1157,
      "뽕": 1158,
      "뾰": 1159,
      "뿌": 1160,
      "뿍": 1161,
      "뿐": 1162,
      "뿔": 1163,
      "뿜": 1164,
      "쁘": 1165,
      "쁜": 1166,
      "쁠": 1167,
      "쁨": 1168,
      "쁩": 1169,
      "삐": 1170,
      "삔": 1171,
      "사": 1172,
      "삭": 1173,
      "삯": 1174,
      "산": 1175,
      "살": 1176,
      "삶": 1177,
      "삼": 1178,
      "삽": 1179,
      "삿": 1180,
      "샀": 1181,
      "상": 1182,
      "샅": 1183,
      "새": 1184,
      "색": 1185,
      "샌": 1186,
      "샐": 1187,
      "샘": 1188,
      "생": 1189,
      "샤": 1190,
      "샥": 1191,
      "샨": 1192,
      "샬": 1193,
      "샴": 1194,
      "샵": 1195,
      "샷": 1196,
      "샹": 1197,
      "섀": 1198,
      "섈": 1199,
      "서": 1200,
      "석": 1201,
      "섞": 1202,
      "선": 1203,
      "섣": 1204,
      "설": 1205,
      "섬": 1206,
      "섭": 1207,
      "섯": 1208,
      "섰": 1209,
      "성": 1210,
      "세": 1211,
      "섹": 1212,
      "센": 1213,
      "셀": 1214,
      "셈": 1215,
      "셉": 1216,
      "셋": 1217,
      "셔": 1218,
      "션": 1219,
      "셜": 1220,
      "셨": 1221,
      "셰": 1222,
      "셴": 1223,
      "셸": 1224,
      "소": 1225,
      "속": 1226,
      "솎": 1227,
      "손": 1228,
      "솔": 1229,
      "솜": 1230,
      "솝": 1231,
      "솟": 1232,
      "송": 1233,
      "솥": 1234,
      "쇄": 1235,
      "쇠": 1236,
      "쇼": 1237,
      "숀": 1238,
      "숍": 1239,
      "숏": 1240,
      "숑": 1241,
      "수": 1242,
      "숙": 1243,
      "순": 1244,
      "숟": 1245,
      "술": 1246,
      "숨": 1247,
      "숩": 1248,
      "숫": 1249,
      "숭": 1250,
      "숯": 1251,
      "숱": 1252,
      "숲": 1253,
      "쉈": 1254,
      "쉐": 1255,
      "쉘": 1256,
      "쉠": 1257,
      "쉥": 1258,
      "쉬": 1259,
      "쉰": 1260,
      "쉴": 1261,
      "쉼": 1262,
      "쉽": 1263,
      "쉿": 1264,
      "슈": 1265,
      "슐": 1266,
      "슘": 1267,
      "슛": 1268,
      "슝": 1269,
      "스": 1270,
      "슨": 1271,
      "슬": 1272,
      "슭": 1273,
      "슴": 1274,
      "습": 1275,
      "슷": 1276,
      "승": 1277,
      "싀": 1278,
      "시": 1279,
      "식": 1280,
      "신": 1281,
      "싣": 1282,
      "실": 1283,
      "싫": 1284,
      "심": 1285,
      "십": 1286,
      "싯": 1287,
      "싱": 1288,
      "싶": 1289,
      "싸": 1290,
      "싹": 1291,
      "싼": 1292,
      "쌀": 1293,
      "쌈": 1294,
      "쌉": 1295,
      "쌌": 1296,
      "쌍": 1297,
      "쌓": 1298,
      "쌤": 1299,
      "썦": 1300,
      "써": 1301,
      "썩": 1302,
      "썬": 1303,
      "썰": 1304,
      "썸": 1305,
      "썹": 1306,
      "썼": 1307,
      "썽": 1308,
      "쎄": 1309,
      "쎈": 1310,
      "쎙": 1311,
      "쏘": 1312,
      "쏙": 1313,
      "쏜": 1314,
      "쏟": 1315,
      "쏠": 1316,
      "쏩": 1317,
      "쏴": 1318,
      "쐈": 1319,
      "쐐": 1320,
      "쐬": 1321,
      "쑤": 1322,
      "쑥": 1323,
      "쓰": 1324,
      "쓴": 1325,
      "쓸": 1326,
      "씀": 1327,
      "씁": 1328,
      "씌": 1329,
      "씨": 1330,
      "씩": 1331,
      "씬": 1332,
      "씸": 1333,
      "씹": 1334,
      "씻": 1335,
      "씽": 1336,
      "아": 1337,
      "악": 1338,
      "안": 1339,
      "앉": 1340,
      "않": 1341,
      "알": 1342,
      "앓": 1343,
      "암": 1344,
      "압": 1345,
      "앗": 1346,
      "았": 1347,
      "앙": 1348,
      "앜": 1349,
      "앞": 1350,
      "애": 1351,
      "액": 1352,
      "앤": 1353,
      "앨": 1354,
      "앰": 1355,
      "앱": 1356,
      "앳": 1357,
      "앵": 1358,
      "야": 1359,
      "약": 1360,
      "얀": 1361,
      "얄": 1362,
      "얇": 1363,
      "얌": 1364,
      "양": 1365,
      "얕": 1366,
      "얗": 1367,
      "얘": 1368,
      "어": 1369,
      "억": 1370,
      "언": 1371,
      "얹": 1372,
      "얻": 1373,
      "얼": 1374,
      "얽": 1375,
      "엄": 1376,
      "업": 1377,
      "없": 1378,
      "엇": 1379,
      "었": 1380,
      "엉": 1381,
      "엊": 1382,
      "엌": 1383,
      "엎": 1384,
      "에": 1385,
      "엑": 1386,
      "엔": 1387,
      "엘": 1388,
      "엠": 1389,
      "엡": 1390,
      "엣": 1391,
      "엥": 1392,
      "여": 1393,
      "역": 1394,
      "엮": 1395,
      "연": 1396,
      "열": 1397,
      "염": 1398,
      "엽": 1399,
      "엿": 1400,
      "였": 1401,
      "영": 1402,
      "옅": 1403,
      "옆": 1404,
      "예": 1405,
      "옌": 1406,
      "옐": 1407,
      "옙": 1408,
      "옛": 1409,
      "오": 1410,
      "옥": 1411,
      "온": 1412,
      "올": 1413,
      "옮": 1414,
      "옳": 1415,
      "옴": 1416,
      "옵": 1417,
      "옷": 1418,
      "옹": 1419,
      "옻": 1420,
      "와": 1421,
      "왁": 1422,
      "완": 1423,
      "왈": 1424,
      "왓": 1425,
      "왔": 1426,
      "왕": 1427,
      "왜": 1428,
      "왠": 1429,
      "왤": 1430,
      "외": 1431,
      "왼": 1432,
      "요": 1433,
      "욕": 1434,
      "욘": 1435,
      "욜": 1436,
      "용": 1437,
      "우": 1438,
      "욱": 1439,
      "운": 1440,
      "울": 1441,
      "움": 1442,
      "웁": 1443,
      "웃": 1444,
      "웅": 1445,
      "워": 1446,
      "웍": 1447,
      "원": 1448,
      "월": 1449,
      "웜": 1450,
      "웠": 1451,
      "웡": 1452,
      "웨": 1453,
      "웬": 1454,
      "웰": 1455,
      "웸": 1456,
      "웹": 1457,
      "위": 1458,
      "윅": 1459,
      "윈": 1460,
      "윌": 1461,
      "윔": 1462,
      "윕": 1463,
      "윗": 1464,
      "윙": 1465,
      "유": 1466,
      "육": 1467,
      "윤": 1468,
      "율": 1469,
      "융": 1470,
      "윷": 1471,
      "으": 1472,
      "윽": 1473,
      "은": 1474,
      "을": 1475,
      "음": 1476,
      "읍": 1477,
      "응": 1478,
      "의": 1479,
      "이": 1480,
      "익": 1481,
      "인": 1482,
      "일": 1483,
      "읽": 1484,
      "잃": 1485,
      "임": 1486,
      "입": 1487,
      "잇": 1488,
      "있": 1489,
      "잉": 1490,
      "잊": 1491,
      "잎": 1492,
      "자": 1493,
      "작": 1494,
      "잔": 1495,
      "잖": 1496,
      "잘": 1497,
      "잠": 1498,
      "잡": 1499,
      "잣": 1500,
      "잤": 1501,
      "장": 1502,
      "잦": 1503,
      "재": 1504,
      "잭": 1505,
      "잰": 1506,
      "잼": 1507,
      "잿": 1508,
      "쟁": 1509,
      "쟈": 1510,
      "쟝": 1511,
      "쟤": 1512,
      "저": 1513,
      "적": 1514,
      "전": 1515,
      "절": 1516,
      "젊": 1517,
      "점": 1518,
      "접": 1519,
      "젓": 1520,
      "정": 1521,
      "젖": 1522,
      "제": 1523,
      "젝": 1524,
      "젠": 1525,
      "젤": 1526,
      "젬": 1527,
      "젯": 1528,
      "젴": 1529,
      "져": 1530,
      "젼": 1531,
      "졌": 1532,
      "졡": 1533,
      "조": 1534,
      "족": 1535,
      "존": 1536,
      "졸": 1537,
      "좀": 1538,
      "좁": 1539,
      "종": 1540,
      "좇": 1541,
      "좋": 1542,
      "좌": 1543,
      "죄": 1544,
      "죗": 1545,
      "죠": 1546,
      "주": 1547,
      "죽": 1548,
      "준": 1549,
      "줄": 1550,
      "줌": 1551,
      "줍": 1552,
      "중": 1553,
      "줘": 1554,
      "줬": 1555,
      "쥐": 1556,
      "쥔": 1557,
      "쥘": 1558,
      "쥬": 1559,
      "쥴": 1560,
      "즈": 1561,
      "즉": 1562,
      "즌": 1563,
      "즐": 1564,
      "즘": 1565,
      "즙": 1566,
      "증": 1567,
      "지": 1568,
      "직": 1569,
      "진": 1570,
      "질": 1571,
      "짊": 1572,
      "짐": 1573,
      "집": 1574,
      "짓": 1575,
      "징": 1576,
      "짖": 1577,
      "짙": 1578,
      "짚": 1579,
      "짜": 1580,
      "짝": 1581,
      "짠": 1582,
      "짢": 1583,
      "짤": 1584,
      "짧": 1585,
      "짬": 1586,
      "짱": 1587,
      "째": 1588,
      "짹": 1589,
      "쨋": 1590,
      "쨌": 1591,
      "쨍": 1592,
      "쩌": 1593,
      "쩍": 1594,
      "쩐": 1595,
      "쩔": 1596,
      "쩜": 1597,
      "쩡": 1598,
      "쩨": 1599,
      "쪄": 1600,
      "쪘": 1601,
      "쪼": 1602,
      "쪽": 1603,
      "쫄": 1604,
      "쫌": 1605,
      "쫓": 1606,
      "쫙": 1607,
      "쬐": 1608,
      "쭈": 1609,
      "쭉": 1610,
      "쭙": 1611,
      "쭤": 1612,
      "쯔": 1613,
      "쯤": 1614,
      "찌": 1615,
      "찍": 1616,
      "찐": 1617,
      "찔": 1618,
      "찜": 1619,
      "찝": 1620,
      "찡": 1621,
      "찢": 1622,
      "차": 1623,
      "착": 1624,
      "찬": 1625,
      "찮": 1626,
      "찰": 1627,
      "참": 1628,
      "찻": 1629,
      "찼": 1630,
      "창": 1631,
      "찾": 1632,
      "채": 1633,
      "책": 1634,
      "챈": 1635,
      "챌": 1636,
      "챔": 1637,
      "챕": 1638,
      "챗": 1639,
      "챘": 1640,
      "챙": 1641,
      "챠": 1642,
      "처": 1643,
      "척": 1644,
      "천": 1645,
      "철": 1646,
      "첨": 1647,
      "첩": 1648,
      "첫": 1649,
      "청": 1650,
      "체": 1651,
      "첸": 1652,
      "첼": 1653,
      "쳇": 1654,
      "쳐": 1655,
      "쳤": 1656,
      "초": 1657,
      "촉": 1658,
      "촌": 1659,
      "촐": 1660,
      "촘": 1661,
      "촛": 1662,
      "총": 1663,
      "촨": 1664,
      "촬": 1665,
      "촵": 1666,
      "최": 1667,
      "쵸": 1668,
      "추": 1669,
      "축": 1670,
      "춘": 1671,
      "출": 1672,
      "춤": 1673,
      "춥": 1674,
      "춧": 1675,
      "충": 1676,
      "춰": 1677,
      "췄": 1678,
      "췌": 1679,
      "취": 1680,
      "츄": 1681,
      "츗": 1682,
      "츠": 1683,
      "측": 1684,
      "츤": 1685,
      "츨": 1686,
      "층": 1687,
      "치": 1688,
      "칙": 1689,
      "친": 1690,
      "칠": 1691,
      "침": 1692,
      "칩": 1693,
      "칫": 1694,
      "칭": 1695,
      "카": 1696,
      "칵": 1697,
      "칸": 1698,
      "칼": 1699,
      "캄": 1700,
      "캅": 1701,
      "캇": 1702,
      "캉": 1703,
      "캐": 1704,
      "캔": 1705,
      "캘": 1706,
      "캠": 1707,
      "캡": 1708,
      "캣": 1709,
      "캥": 1710,
      "캪": 1711,
      "캬": 1712,
      "커": 1713,
      "컥": 1714,
      "컨": 1715,
      "컫": 1716,
      "컬": 1717,
      "컴": 1718,
      "컵": 1719,
      "컷": 1720,
      "컸": 1721,
      "컹": 1722,
      "케": 1723,
      "켄": 1724,
      "켈": 1725,
      "켐": 1726,
      "켓": 1727,
      "켜": 1728,
      "켠": 1729,
      "켤": 1730,
      "켭": 1731,
      "켰": 1732,
      "코": 1733,
      "콕": 1734,
      "콘": 1735,
      "콜": 1736,
      "콤": 1737,
      "콥": 1738,
      "콧": 1739,
      "콩": 1740,
      "콰": 1741,
      "콴": 1742,
      "쾅": 1743,
      "쾌": 1744,
      "쾰": 1745,
      "쿄": 1746,
      "쿠": 1747,
      "쿡": 1748,
      "쿤": 1749,
      "쿨": 1750,
      "쿰": 1751,
      "쿱": 1752,
      "쿵": 1753,
      "쿼": 1754,
      "퀀": 1755,
      "퀄": 1756,
      "퀘": 1757,
      "퀜": 1758,
      "퀴": 1759,
      "퀵": 1760,
      "퀸": 1761,
      "퀼": 1762,
      "큐": 1763,
      "큘": 1764,
      "크": 1765,
      "큰": 1766,
      "클": 1767,
      "큼": 1768,
      "큽": 1769,
      "킁": 1770,
      "키": 1771,
      "킥": 1772,
      "킨": 1773,
      "킬": 1774,
      "킴": 1775,
      "킵": 1776,
      "킷": 1777,
      "킹": 1778,
      "타": 1779,
      "탁": 1780,
      "탄": 1781,
      "탈": 1782,
      "탉": 1783,
      "탐": 1784,
      "탑": 1785,
      "탓": 1786,
      "탔": 1787,
      "탕": 1788,
      "태": 1789,
      "택": 1790,
      "탠": 1791,
      "탤": 1792,
      "탬": 1793,
      "탭": 1794,
      "탯": 1795,
      "탰": 1796,
      "탱": 1797,
      "터": 1798,
      "턱": 1799,
      "턴": 1800,
      "털": 1801,
      "텀": 1802,
      "텁": 1803,
      "텃": 1804,
      "텅": 1805,
      "테": 1806,
      "텍": 1807,
      "텐": 1808,
      "텔": 1809,
      "템": 1810,
      "텝": 1811,
      "텟": 1812,
      "텨": 1813,
      "토": 1814,
      "톡": 1815,
      "톤": 1816,
      "톨": 1817,
      "톬": 1818,
      "톰": 1819,
      "톱": 1820,
      "톳": 1821,
      "통": 1822,
      "퇴": 1823,
      "투": 1824,
      "툭": 1825,
      "툰": 1826,
      "툴": 1827,
      "툼": 1828,
      "퉁": 1829,
      "퉈": 1830,
      "퉜": 1831,
      "튀": 1832,
      "튕": 1833,
      "튜": 1834,
      "튠": 1835,
      "튤": 1836,
      "튬": 1837,
      "트": 1838,
      "특": 1839,
      "튼": 1840,
      "틀": 1841,
      "틈": 1842,
      "틋": 1843,
      "틔": 1844,
      "티": 1845,
      "틱": 1846,
      "틴": 1847,
      "틸": 1848,
      "팀": 1849,
      "팁": 1850,
      "팅": 1851,
      "파": 1852,
      "팍": 1853,
      "팎": 1854,
      "판": 1855,
      "팔": 1856,
      "팜": 1857,
      "팝": 1858,
      "팟": 1859,
      "팠": 1860,
      "팡": 1861,
      "팥": 1862,
      "패": 1863,
      "팩": 1864,
      "팬": 1865,
      "팰": 1866,
      "팸": 1867,
      "팹": 1868,
      "팻": 1869,
      "팽": 1870,
      "퍼": 1871,
      "퍽": 1872,
      "펀": 1873,
      "펄": 1874,
      "펌": 1875,
      "펍": 1876,
      "펐": 1877,
      "펑": 1878,
      "페": 1879,
      "펙": 1880,
      "펜": 1881,
      "펠": 1882,
      "펨": 1883,
      "펩": 1884,
      "펫": 1885,
      "펭": 1886,
      "펴": 1887,
      "편": 1888,
      "펼": 1889,
      "폈": 1890,
      "평": 1891,
      "폐": 1892,
      "포": 1893,
      "폭": 1894,
      "폰": 1895,
      "폴": 1896,
      "폼": 1897,
      "퐁": 1898,
      "표": 1899,
      "푯": 1900,
      "푸": 1901,
      "푹": 1902,
      "푼": 1903,
      "풀": 1904,
      "품": 1905,
      "풉": 1906,
      "풋": 1907,
      "풍": 1908,
      "퓨": 1909,
      "퓰": 1910,
      "프": 1911,
      "픈": 1912,
      "플": 1913,
      "픔": 1914,
      "픕": 1915,
      "피": 1916,
      "픽": 1917,
      "핀": 1918,
      "필": 1919,
      "핌": 1920,
      "핍": 1921,
      "핏": 1922,
      "핑": 1923,
      "하": 1924,
      "학": 1925,
      "한": 1926,
      "할": 1927,
      "핥": 1928,
      "함": 1929,
      "합": 1930,
      "핫": 1931,
      "항": 1932,
      "해": 1933,
      "핵": 1934,
      "핸": 1935,
      "핼": 1936,
      "햄": 1937,
      "햇": 1938,
      "했": 1939,
      "행": 1940,
      "향": 1941,
      "허": 1942,
      "헉": 1943,
      "헌": 1944,
      "헐": 1945,
      "험": 1946,
      "헛": 1947,
      "헝": 1948,
      "헤": 1949,
      "헥": 1950,
      "헨": 1951,
      "헬": 1952,
      "헴": 1953,
      "헵": 1954,
      "헷": 1955,
      "헹": 1956,
      "혀": 1957,
      "혁": 1958,
      "현": 1959,
      "혈": 1960,
      "혐": 1961,
      "협": 1962,
      "혓": 1963,
      "혔": 1964,
      "형": 1965,
      "혜": 1966,
      "호": 1967,
      "혹": 1968,
      "혼": 1969,
      "홀": 1970,
      "홈": 1971,
      "홉": 1972,
      "홋": 1973,
      "홍": 1974,
      "화": 1975,
      "확": 1976,
      "환": 1977,
      "활": 1978,
      "홧": 1979,
      "황": 1980,
      "횃": 1981,
      "회": 1982,
      "획": 1983,
      "횟": 1984,
      "횡": 1985,
      "효": 1986,
      "후": 1987,
      "훅": 1988,
      "훈": 1989,
      "훌": 1990,
      "훑": 1991,
      "훔": 1992,
      "훗": 1993,
      "훨": 1994,
      "훼": 1995,
      "휘": 1996,
      "휙": 1997,
      "휠": 1998,
      "휩": 1999,
      "휴": 2000,
      "흄": 2001,
      "흉": 2002,
      "흐": 2003,
      "흑": 2004,
      "흔": 2005,
      "흘": 2006,
      "흙": 2007,
      "흠": 2008,
      "흡": 2009,
      "흥": 2010,
      "흩": 2011,
      "희": 2012,
      "흰": 2013,
      "히": 2014,
      "힉": 2015,
      "힌": 2016,
      "힐": 2017,
      "힘": 2018,
      "힙": 2019,
      "論": 2020,
      "️": 2021,
      "﻿": 2022,
      "�": 2023,
      "🌈": 2024,
      "🌍": 2025,
      "🌞": 2026,
      "🌟": 2027,
      "🌧": 2028,
      "🌱": 2029,
      "🌳": 2030,
      "🌸": 2031,
      "🌻": 2032,
      "🌼": 2033,
      "🍦": 2034,
      "🐶": 2035,
      "👍": 2036,
      "💕": 2037,
      "💖": 2038,
      "💚": 2039,
      "💛": 2040,
      "💪": 2041,
      "💫": 2042,
      "😀": 2043,
      "😁": 2044,
      "😃": 2045,
      "😄": 2046,
      "😊": 2047,
      "😋": 2048,
      "😍": 2049,
      "😔": 2050,
      "😕": 2051,
      "😞": 2052,
      "😠": 2053,
      "😡": 2054,
      "😢": 2055,
      "😩": 2056,
      "😭": 2057,
      "😺": 2058,
      "🙁": 2059,
      "🙂": 2060,
      "🤗": 2061,
      "🤝": 2062,
      "🥰": 2063,
      "니다": 2064,
      "습니다": 2065,
      "세요": 2066,
      "합니다": 2067,
      "하는": 2068,
      "문장": 2069,
      "있습니다": 2070,
      "으로": 2071,
      "하세요": 2072,
      "에서": 2073,
      "주세요": 2074,
      "하고": 2075,
      "어떤": 2076,
      "입니다": 2077,
      "정보": 2078,
      "도와": 2079,
      "어로": 2080,
      "있는": 2081,
      "나요": 2082,
      "드릴": 2083,
      "주시": 2084,
      "문장을": 2085,
      "알려": 2086,
      "안녕": 2087,
      "질문": 2088,
      "안녕하세요": 2089,
      "번역": 2090,
      "하지": 2091,
      "적인": 2092,
      "가요": 2093,
      "제공": 2094,
      "문제": 2095,
      "다음": 2096,
      "대한": 2097,
      "도움": 2098,
      "당신": 2099,
      "겠습니다": 2100,
      "저는": 2101,
      "주시면": 2102,
      "대해": 2103,
      "한국": 2104,
      "정보를": 2105,
      "드리": 2106,
      "필요": 2107,
      "적으로": 2108,
      "까요": 2109,
      "무엇": 2110,
      "사용": 2111,
      "생각": 2112,
      "어요": 2113,
      "설명": 2114,
      "날씨": 2115,
      "사람": 2116,
      "있을": 2117,
      "도와드릴": 2118,
      "시간": 2119,
      "도움이": 2120,
      "오늘": 2121,
      "있나요": 2122,
      "제가": 2123,
      "하지만": 2124,
      "다고": 2125,
      "영어로": 2126,
      "드리겠습니다": 2127,
      "인가요": 2128,
      "주어": 2129,
      "죄송": 2130,
      "어떻": 2131,
      "단어": 2132,
      "가장": 2133,
      "가지": 2134,
      "어떻게": 2135,
      "해주세요": 2136,
      "군요": 2137,
      "작성": 2138,
      "스트": 2139,
      "알려주시면": 2140,
      "죄송합니다": 2141,
      "한국어로": 2142,
      "들어": 2143,
      "현재": 2144,
      "하시": 2145,
      "있으": 2146,
      "개인": 2147,
      "당신이": 2148,
      "친구": 2149,
      "하게": 2150,
      "또는": 2151,
      "그러": 2152,
      "것이": 2153,
      "언제": 2154,
      "하여": 2155,
      "is": 2156,
      "물론": 2157,
      "때문": 2158,
      "이나": 2159,
      "위해": 2160,
      "하기": 2161,
      "아니": 2162,
      "없습니다": 2163,
      "들이": 2164,
      "에게": 2165,
      "너무": 2166,
      "ou": 2167,
      "문제를": 2168,
      "거나": 2169,
      "an": 2170,
      "확인": 2171,
      "같아": 2172,
      "따라": 2173,
      "겠어요": 2174,
      "다른": 2175,
      "답변": 2176,
      "나는": 2177,
      "특정": 2178,
      "있어": 2179,
      ".\"": 2180,
      "데이": 2181,
      "도와드리겠습니다": 2182,
      "는데": 2183,
      "때문에": 2184,
      "가능": 2185,
      "도움을": 2186,
      "이야": 2187,
      "신가요": 2188,
      "he": 2189,
      "중요": 2190,
      "주어진": 2191,
      "이해": 2192,
      "이죠": 2193,
      "당신의": 2194,
      "많이": 2195,
      "주실": 2196,
      "in": 2197,
      "인공": 2198,
      "물론이죠": 2199,
      "수학": 2200,
      "주제": 2201,
      "무엇인가요": 2202,
      "같습니다": 2203,
      "것을": 2204,
      "영어": 2205,
      "생각합니다": 2206,
      "좋아": 2207,
      "해야": 2208,
      "다면": 2209,
      "지능": 2210,
      "말씀": 2211,
      "됩니다": 2212,
      "하면": 2213,
      "ㅋㅋ": 2214,
      "있을까요": 2215,
      "정확": 2216,
      "그러나": 2217,
      "이름": 2218,
      "라고": 2219,
      "영화": 2220,
      "구체": 2221,
      "텍스트": 2222,
      "인지": 2223,
      "실시간": 2224,
      "at": 2225,
      "프로": 2226,
      "질문에": 2227,
      "다양": 2228,
      "이는": 2229,
      "번역해": 2230,
      "하겠습니다": 2231,
      "인공지능": 2232,
      "내용": 2233,
      "의미": 2234,
      "그래": 2235,
      "같은": 2236,
      "필요한": 2237,
      "표현": 2238,
      "우리": 2239,
      "위치": 2240,
      "니까": 2241,
      "것입니다": 2242,
      "설명해": 2243,
      "보세요": 2244,
      "자세": 2245,
      "데이터": 2246,
      "you": 2247,
      "것은": 2248,
      "되어": 2249,
      "지만": 2250,
      "해서": 2251,
      "했습니다": 2252,
      "해결": 2253,
      "대화": 2254,
      "한국어": 2255,
      "하거나": 2256,
      "레스": 2257,
      "내가": 2258,
      "분이": 2259,
      "제공해": 2260,
      "다양한": 2261,
      "다는": 2262,
      "선택": 2263,
      "좋은": 2264,
      "상황": 2265,
      "도록": 2266,
      "되는": 2267,
      "se": 2268,
      "었습니다": 2269,
      "사이": 2270,
      "든지": 2271,
      "영향": 2272,
      "여러": 2273,
      "리고": 2274,
      "관련": 2275,
      "개인적으로": 2276,
      "모든": 2277,
      "그렇": 2278,
      "분석": 2279,
      "언어": 2280,
      "감정": 2281,
      "말씀해": 2282,
      "원하는": 2283,
      "많은": 2284,
      "gl": 2285,
      "에는": 2286,
      "알고": 2287,
      "알려주세요": 2288,
      "to": 2289,
      "로운": 2290,
      "19": 2291,
      "ish": 2292,
      "음식": 2293,
      "그런": 2294,
      "En": 2295,
      "Engl": 2296,
      "English": 2297,
      "다시": 2298,
      "없어": 2299,
      "라는": 2300,
      "방법": 2301,
      "일이": 2302,
      "들은": 2303,
      "문장이": 2304,
      "정말": 2305,
      "생성": 2306,
      "AI": 2307,
      "20": 2308,
      "도와드릴까요": 2309,
      "작성하세요": 2310,
      "..": 2311,
      "주셔": 2312,
      "필요하": 2313,
      "이야기": 2314,
      "통해": 2315,
      "단계": 2316,
      "아이": 2317,
      "예를": 2318,
      "지금": 2319,
      "중요한": 2320,
      "어려": 2321,
      "re": 2322,
      "가족": 2323,
      "여기": 2324,
      "on": 2325,
      "제시": 2326,
      "않습니다": 2327,
      "남자": 2328,
      "주셔야": 2329,
      "그리고": 2330,
      "문장은": 2331,
      "요즘": 2332,
      "내용을": 2333,
      "들을": 2334,
      "자세히": 2335,
      "싶은": 2336,
      "감사": 2337,
      "단어를": 2338,
      "지역": 2339,
      "질문이": 2340,
      "기술": 2341,
      "구체적인": 2342,
      "하나": 2343,
      "무엇을": 2344,
      "시는": 2345,
      "경험": 2346,
      "질문을": 2347,
      "보고": 2348,
      "리를": 2349,
      "맞아": 2350,
      "준비": 2351,
      "성을": 2352,
      "시오": 2353,
      "숫자": 2354,
      "새로운": 2355,
      "부분": 2356,
      "시작": 2357,
      "십시오": 2358,
      "문제에": 2359,
      "하시는": 2360,
      "시군요": 2361,
      "10": 2362,
      "영향을": 2363,
      "하는데": 2364,
      "사를": 2365,
      "건강": 2366,
      "다음과": 2367,
      "그럼": 2368,
      "언제든지": 2369,
      "위한": 2370,
      "하며": 2371,
      "있다고": 2372,
      "하려": 2373,
      "따라서": 2374,
      "어디": 2375,
      "있는지": 2376,
      "레스토": 2377,
      "레스토랑": 2378,
      "정확한": 2379,
      "일반": 2380,
      "당연": 2381,
      "궁금": 2382,
      "ans": 2383,
      "분류": 2384,
      "옵션": 2385,
      "가지고": 2386,
      "역할": 2387,
      "가설": 2388,
      "기능": 2389,
      "포함": 2390,
      "항상": 2391,
      "이러": 2392,
      "신지": 2393,
      "일을": 2394,
      "전제": 2395,
      "번역하고": 2396,
      "그에": 2397,
      "않아": 2398,
      "적이": 2399,
      "인간": 2400,
      "학교": 2401,
      "이를": 2402,
      "싶으": 2403,
      "고객": 2404,
      "사회": 2405,
      "무슨": 2406,
      "립니다": 2407,
      "사용하여": 2408,
      "미국": 2409,
      "이유": 2410,
      "비스": 2411,
      "나도": 2412,
      "요약": 2413,
      "진짜": 2414,
      "능력": 2415,
      "서비스": 2416,
      "as": 2417,
      "함께": 2418,
      "당연히": 2419,
      "걱정": 2420,
      "스러": 2421,
      "아니요": 2422,
      "기를": 2423,
      "사용자": 2424,
      "평가": 2425,
      "먼저": 2426,
      "수는": 2427,
      "자연": 2428,
      "동물": 2429,
      "결과": 2430,
      "태어": 2431,
      "있어요": 2432,
      "모두": 2433,
      "매우": 2434,
      "주제에": 2435,
      "tr": 2436,
      "사이트": 2437,
      "있었": 2438,
      "가격": 2439,
      "제공하는": 2440,
      "없는": 2441,
      "들의": 2442,
      "lat": 2443,
      "문장의": 2444,
      "시겠어요": 2445,
      "회사": 2446,
      "했어": 2447,
      "혹은": 2448,
      "anslat": 2449,
      "주요": 2450,
      "직접": 2451,
      "서로": 2452,
      "얼마": 2453,
      "이러한": 2454,
      "요청": 2455,
      "만들어": 2456,
      "음악": 2457,
      "이제": 2458,
      "결정": 2459,
      "지를": 2460,
      "찾아": 2461,
      "최근": 2462,
      "지는": 2463,
      "번째": 2464,
      "사실": 2465,
      "않았": 2466,
      "하하": 2467,
      "드립니다": 2468,
      "번역을": 2469,
      "있다": 2470,
      "개의": 2471,
      "여행": 2472,
      "가능한": 2473,
      "입력": 2474,
      "게임": 2475,
      "the": 2476,
      "en": 2477,
      "리는": 2478,
      "종류": 2479,
      "translat": 2480,
      "주시겠어요": 2481,
      "뉴스": 2482,
      "그는": 2483,
      "ay": 2484,
      "목록": 2485,
      "관리": 2486,
      "사항": 2487,
      "lo": 2488,
      "부터": 2489,
      "태어났": 2490,
      "제공할": 2491,
      "자신": 2492,
      "보다": 2493,
      "식을": 2494,
      "성이": 2495,
      "전에": 2496,
      "정보가": 2497,
      "환경": 2498,
      "느끼": 2499,
      "감사하겠습니다": 2500,
      "웹사이트": 2501,
      "마음": 2502,
      "는지": 2503,
      "긍정": 2504,
      "되었습니다": 2505,
      "ow": 2506,
      "계획": 2507,
      "기분이": 2508,
      "까지": 2509,
      "The": 2510,
      "사람이": 2511,
      "친구가": 2512,
      "세계": 2513,
      "경우": 2514,
      "같아요": 2515,
      "그렇게": 2516,
      "하실": 2517,
      "점을": 2518,
      "확인해": 2519,
      "있으며": 2520,
      "실제": 2521,
      "작업": 2522,
      "어느": 2523,
      "으면": 2524,
      "해당": 2525,
      "검색": 2526,
      "제공하지": 2527,
      "네요": 2528,
      "그녀": 2529,
      "제시해": 2530,
      "텍스트를": 2531,
      "같이": 2532,
      "문법": 2533,
      "추가": 2534,
      "랑스": 2535,
      "제목": 2536,
      "변화": 2537,
      "하루": 2538,
      "프랑스": 2539,
      "감정을": 2540,
      "동안": 2541,
      "국가": 2542,
      "만들": 2543,
      "th": 2544,
      "고양": 2545,
      "좋을": 2546,
      "셨군요": 2547,
      "이가": 2548,
      "le": 2549,
      "ion": 2550,
      "올바": 2551,
      "사과": 2552,
      "코드": 2553,
      "역할을": 2554,
      "추천": 2555,
      "이번": 2556,
      "있으신가요": 2557,
      "문화": 2558,
      "활동": 2559,
      "과학": 2560,
      "무엇이": 2561,
      "공부": 2562,
      "일입니다": 2563,
      "되지": 2564,
      "고려": 2565,
      "부정": 2566,
      "구체적으로": 2567,
      "있도록": 2568,
      "젝트": 2569,
      "프로젝트": 2570,
      "시스": 2571,
      "사람들이": 2572,
      "점이": 2573,
      "해석": 2574,
      "제품": 2575,
      "과정": 2576,
      "여러분": 2577,
      "날씨가": 2578,
      "이상": 2579,
      "부모": 2580,
      "수정": 2581,
      "개인적인": 2582,
      "못합니다": 2583,
      "또한": 2584,
      "필요합니다": 2585,
      "없음": 2586,
      "부탁": 2587,
      "년에": 2588,
      "기반": 2589,
      "되었": 2590,
      "can": 2591,
      "있는데": 2592,
      "주는": 2593,
      "문자": 2594,
      "...": 2595,
      "조금": 2596,
      "데이트": 2597,
      "조언": 2598,
      "요소": 2599,
      "배우": 2600,
      "등을": 2601,
      "리뷰": 2602,
      "관한": 2603,
      "결혼": 2604,
      "서는": 2605,
      "수도": 2606,
      "적절": 2607,
      "or": 2608,
      "er": 2609,
      "일정": 2610,
      "해요": 2611,
      "속상": 2612,
      "에너": 2613,
      "물론입니다": 2614,
      "도와드리": 2615,
      "개념": 2616,
      "서울": 2617,
      "최선": 2618,
      "기가": 2619,
      "정보나": 2620,
      "들에게": 2621,
      "가능합니다": 2622,
      "의해": 2623,
      "운동": 2624,
      "그래서": 2625,
      "명확": 2626,
      "행동": 2627,
      "관계": 2628,
      ").": 2629,
      "므로": 2630,
      "문장에서": 2631,
      "알려주실": 2632,
      "답변을": 2633,
      "관련된": 2634,
      "더라": 2635,
      "경제": 2636,
      "태어났어": 2637,
      "하나요": 2638,
      "계산": 2639,
      "자기": 2640,
      "시간을": 2641,
      "ce": 2642,
      "근데": 2643,
      "접근": 2644,
      "하십시오": 2645,
      "가까": 2646,
      "대로": 2647,
      "도시": 2648,
      "효과": 2649,
      "부모님": 2650,
      "싶어": 2651,
      "더욱": 2652,
      "유지": 2653,
      "거야": 2654,
      "대화를": 2655,
      "아래": 2656,
      "ist": 2657,
      "힘드": 2658,
      "이름을": 2659,
      "our": 2660,
      "시는군요": 2661,
      "아닌": 2662,
      "ass": 2663,
      "물어": 2664,
      "일에": 2665,
      "있다면": 2666,
      "책을": 2667,
      "수를": 2668,
      "있다는": 2669,
      "에서는": 2670,
      "업데이트": 2671,
      "남편": 2672,
      "번역하고자": 2673,
      "앱을": 2674,
      "날씨를": 2675,
      "일본": 2676,
      "계속": 2677,
      "없어서": 2678,
      "간단": 2679,
      "있으시": 2680,
      "assist": 2681,
      "발생": 2682,
      "페인": 2683,
      "답을": 2684,
      "구성": 2685,
      "가는": 2686,
      "기분": 2687,
      "보여": 2688,
      "데이터를": 2689,
      "컴퓨": 2690,
      "하려면": 2691,
      "누구": 2692,
      "of": 2693,
      "하길": 2694,
      "기상": 2695,
      "기억": 2696,
      "라서": 2697,
      "근처": 2698,
      "로서": 2699,
      "만드": 2700,
      "출력": 2701,
      "?\"": 2702,
      "es": 2703,
      "노력": 2704,
      "있지만": 2705,
      "사랑": 2706,
      "어려움": 2707,
      "이미": 2708,
      "모르": 2709,
      "How": 2710,
      "라인": 2711,
      "자가": 2712,
      "어를": 2713,
      "문을": 2714,
      "번역해주세요": 2715,
      "성공": 2716,
      "공유": 2717,
      "Of": 2718,
      "구조": 2719,
      "미래": 2720,
      "론을": 2721,
      "인해": 2722,
      "의미를": 2723,
      "cour": 2724,
      "course": 2725,
      "생활": 2726,
      "답은": 2727,
      "지구": 2728,
      "습니까": 2729,
      "지원": 2730,
      "역사": 2731,
      "가까운": 2732,
      "아침": 2733,
      "기는": 2734,
      "고민": 2735,
      "아직": 2736,
      "하다고": 2737,
      "현재의": 2738,
      "적절한": 2739,
      "원하시는": 2740,
      "것도": 2741,
      "el": 2742,
      "제안": 2743,
      "최근에": 2744,
      "맞는": 2745,
      "하시나요": 2746,
      "으며": 2747,
      "최선을": 2748,
      "학생": 2749,
      "선수": 2750,
      "완전": 2751,
      "등에": 2752,
      "보내": 2753,
      "미안": 2754,
      "상세": 2755,
      "이스": 2756,
      "인터": 2757,
      "친화": 2758,
      "컴퓨터": 2759,
      "인공지능이": 2760,
      "나타": 2761,
      "치는": 2762,
      "있어서": 2763,
      "보호": 2764,
      "들과": 2765,
      "싶으신가요": 2766,
      "해주시면": 2767,
      "상을": 2768,
      "한다고": 2769,
      "어떠": 2770,
      "스페인": 2771,
      "하는지": 2772,
      "아무": 2773,
      "바탕": 2774,
      "화가": 2775,
      "종류의": 2776,
      "생각해": 2777,
      "사진": 2778,
      "범위": 2779,
      "나라": 2780,
      "말을": 2781,
      "학습": 2782,
      "문제가": 2783,
      "않는": 2784,
      "목표": 2785,
      "바탕으로": 2786,
      "분야": 2787,
      "모델": 2788,
      "유형": 2789,
      "세부": 2790,
      "리가": 2791,
      "단어의": 2792,
      "아니면": 2793,
      "일반적으로": 2794,
      "발전": 2795,
      "겠어": 2796,
      "성과": 2797,
      "이에": 2798,
      "상태": 2799,
      "정보는": 2800,
      "연구": 2801,
      "르게": 2802,
      "스포": 2803,
      "했는데": 2804,
      "주의": 2805,
      "궁금한": 2806,
      "부분이": 2807,
      "집니다": 2808,
      "설명하는": 2809,
      "알아": 2810,
      "스포츠": 2811,
      "필요하신지": 2812,
      "커피": 2813,
      "것으로": 2814,
      "엄마": 2815,
      "nt": 2816,
      "어때": 2817,
      "내일": 2818,
      "의견": 2819,
      "있지": 2820,
      "어렵": 2821,
      "인간의": 2822,
      "싶습니다": 2823,
      "다니": 2824,
      "엄청": 2825,
      "능력이": 2826,
      "정확하게": 2827,
      "일어": 2828,
      "한테": 2829,
      "있으면": 2830,
      "괜찮": 2831,
      "다가": 2832,
      "받아": 2833,
      "인터넷": 2834,
      "축구": 2835,
      "정도": 2836,
      "등이": 2837,
      "행복": 2838,
      "주어졌": 2839,
      "진행": 2840,
      "겠다": 2841,
      "셨나요": 2842,
      "문맥": 2843,
      "설명을": 2844,
      "ence": 2845,
      "변환": 2846,
      "스트레스": 2847,
      "시스템": 2848,
      "존재": 2849,
      "도와줄": 2850,
      "남자가": 2851,
      "처음": 2852,
      "장소": 2853,
      "올바른": 2854,
      "세스": 2855,
      "자동": 2856,
      "얼마나": 2857,
      "그의": 2858,
      "여기에": 2859,
      "직장": 2860,
      "경험을": 2861,
      "무엇인지": 2862,
      "그러면": 2863,
      "스타": 2864,
      "부탁드립니다": 2865,
      "기능이": 2866,
      "나무": 2867,
      "오늘은": 2868,
      "사는": 2869,
      "sent": 2870,
      "랍니다": 2871,
      "12": 2872,
      "작은": 2873,
      "주로": 2874,
      "음식을": 2875,
      "에너지": 2876,
      "그냥": 2877,
      "알려주": 2878,
      "처럼": 2879,
      "sentence": 2880,
      "았어": 2881,
      "교육": 2882,
      "불안": 2883,
      "주어졌을": 2884,
      "식별": 2885,
      "바랍니다": 2886,
      "좋아하는": 2887,
      "중국": 2888,
      "리아": 2889,
      "식으로": 2890,
      "력을": 2891,
      "자를": 2892,
      "이용": 2893,
      "상황을": 2894,
      "었어": 2895,
      "때문입니다": 2896,
      "관심": 2897,
      "사용하는": 2898,
      "그녀는": 2899,
      "그램": 2900,
      "평균": 2901,
      "있고": 2902,
      "없이": 2903,
      "기에": 2904,
      "복잡": 2905,
      "메시": 2906,
      "예보": 2907,
      "답하세요": 2908,
      "중에": 2909,
      "시에": 2910,
      "언급": 2911,
      "hel": 2912,
      "사고": 2913,
      "이름은": 2914,
      "등의": 2915,
      "물을": 2916,
      "힘들": 2917,
      "여러분의": 2918,
      "translation": 2919,
      "may": 2920,
      "가치": 2921,
      "따른": 2922,
      "나를": 2923,
      "시험": 2924,
      "싶어요": 2925,
      "작성합니다": 2926,
      "일반적인": 2927,
      "힘들어": 2928,
      "전달": 2929,
      "인도": 2930,
      "시키": 2931,
      "자세한": 2932,
      "정의": 2933,
      "않은": 2934,
      "일부": 2935,
      "셔서": 2936,
      "마음이": 2937,
      "서비스를": 2938,
      "해보세요": 2939,
      "pe": 2940,
      "문장에": 2941,
      "려고": 2942,
      "여자": 2943,
      "it": 2944,
      "그거": 2945,
      "물이": 2946,
      "최신": 2947,
      "적합": 2948,
      "당신을": 2949,
      "리적": 2950,
      "되고": 2951,
      "말씀해주시면": 2952,
      "내릴": 2953,
      "하신": 2954,
      "레이": 2955,
      "인공지능으로": 2956,
      "어제": 2957,
      "아름": 2958,
      "help": 2959,
      "필요하신가요": 2960,
      "대답": 2961,
      "상황에": 2962,
      "보는": 2963,
      "슬프": 2964,
      "그래도": 2965,
      "ase": 2966,
      "노래": 2967,
      "도를": 2968,
      "려면": 2969,
      "케이": 2970,
      "목록을": 2971,
      "요리": 2972,
      "me": 2973,
      "과제": 2974,
      "생성합니다": 2975,
      "업무": 2976,
      "프로그램": 2977,
      "수가": 2978,
      "이라고": 2979,
      "것에": 2980,
      "개발": 2981,
      "특정한": 2982,
      "감을": 2983,
      "정보에": 2984,
      "방법을": 2985,
      "이유는": 2986,
      "스럽": 2987,
      "특별": 2988,
      "강변": 2989,
      "에도": 2990,
      "날짜": 2991,
      "유명": 2992,
      "전문": 2993,
      "명의": 2994,
      "선생": 2995,
      "처리": 2996,
      "프로세스": 2997,
      "eat": 2998,
      "저에게": 2999,
      "결론을": 3000,
      "ai": 3001,
      "많아": 3002,
      "재미": 3003,
      "선생님": 3004,
      "이런": 3005,
      "정치": 3006,
      "우리는": 3007,
      "혼자": 3008,
      "떨어": 3009,
      "긍정적인": 3010,
      "아프": 3011,
      "작품": 3012,
      "생성하세요": 3013,
      "안전": 3014,
      "디어": 3015,
      "높은": 3016,
      "자는": 3017,
      "언니": 3018,
      "작용": 3019,
      "레스토랑에": 3020,
      "겪고": 3021,
      "위해서는": 3022,
      "ing": 3023,
      "이해하고": 3024,
      "맛있는": 3025,
      "문의": 3026,
      "좋지": 3027,
      "자주": 3028,
      "하시겠어요": 3029,
      "스러운": 3030,
      "봤어": 3031,
      "이해하기": 3032,
      "조언을": 3033,
      "나열": 3034,
      "구를": 3035,
      "시를": 3036,
      "어서": 3037,
      "의미합니다": 3038,
      "있게": 3039,
      "형태": 3040,
      "않고": 3041,
      "lease": 3042,
      "랜드": 3043,
      "문장으로": 3044,
      "가진": 3045,
      "필요로": 3046,
      "선택하세요": 3047,
      "어려운": 3048,
      "ed": 3049,
      "되나요": 3050,
      "기사": 3051,
      "가고": 3052,
      "게요": 3053,
      "비교": 3054,
      "창의": 3055,
      "18": 3056,
      "하고자": 3057,
      "이루": 3058,
      "한번": 3059,
      "예술": 3060,
      "마지": 3061,
      "이것은": 3062,
      "수행": 3063,
      "마지막": 3064,
      "가서": 3065,
      "풀어": 3066,
      "이고": 3067,
      "계신가요": 3068,
      "주변": 3069,
      "번역하길": 3070,
      "개인의": 3071,
      "겠습니까": 3072,
      "아름다": 3073,
      "이야기를": 3074,
      "쉽게": 3075,
      "지면": 3076,
      "제목을": 3077,
      "예측": 3078,
      "부정적인": 3079,
      "Dai": 3080,
      "어린": 3081,
      "사용되는": 3082,
      "돈을": 3083,
      "질문해": 3084,
      "오는": 3085,
      "Dailo": 3086,
      "됐어": 3087,
      "구나": 3088,
      "병원": 3089,
      "활용": 3090,
      "자의": 3091,
      "AI로서": 3092,
      "기본": 3093,
      "어려움을": 3094,
      "15": 3095,
      "렇게": 3096,
      "도울": 3097,
      "못하지만": 3098,
      "온라인": 3099,
      "가설이": 3100,
      "사건": 3101,
      "연락": 3102,
      "서를": 3103,
      "기온": 3104,
      "자동차": 3105,
      "단락": 3106,
      "이탈": 3107,
      "시간이": 3108,
      "오류": 3109,
      "라이": 3110,
      "공식": 3111,
      "필요한지": 3112,
      "준비가": 3113,
      "알려주셔야": 3114,
      "이렇게": 3115,
      "트를": 3116,
      "목적": 3117,
      "한다": 3118,
      "너는": 3119,
      "ㅠㅠ": 3120,
      "개선": 3121,
      "대학": 3122,
      "당황": 3123,
      "악기": 3124,
      "예요": 3125,
      "적합한": 3126,
      "이며": 3127,
      "지가": 3128,
      "보면": 3129,
      "부분을": 3130,
      "위치한": 3131,
      "취업": 3132,
      "ello": 3133,
      "위치에": 3134,
      "언어를": 3135,
      "만족": 3136,
      "드리지": 3137,
      "적이고": 3138,
      "머니": 3139,
      "Hello": 3140,
      "증가": 3141,
      "과거": 3142,
      "하시군요": 3143,
      "우울": 3144,
      "먹는": 3145,
      "작성해주세요": 3146,
      "방정": 3147,
      "별로": 3148,
      "간단한": 3149,
      "않았습니다": 3150,
      "시아": 3151,
      "자신의": 3152,
      "사회적": 3153,
      "이기": 3154,
      "태양": 3155,
      "Se": 3156,
      "일상": 3157,
      "언어로": 3158,
      "이어": 3159,
      "흥미": 3160,
      "리적인": 3161,
      "서울의": 3162,
      "성은": 3163,
      "성장": 3164,
      "잘못": 3165,
      "않아서": 3166,
      "비가": 3167,
      "이번에": 3168,
      "갑자기": 3169,
      "11": 3170,
      "설정": 3171,
      "좋습니다": 3172,
      "날씨에": 3173,
      "았습니다": 3174,
      "음을": 3175,
      "당신은": 3176,
      "말씀해주세요": 3177,
      "심히": 3178,
      "나누": 3179,
      "확인하실": 3180,
      "걱정이": 3181,
      "변경": 3182,
      "따르": 3183,
      "al": 3184,
      "결과를": 3185,
      "분류하세요": 3186,
      "형성": 3187,
      "발견": 3188,
      "날씨는": 3189,
      "있으시면": 3190,
      "각형": 3191,
      "단계는": 3192,
      "사람들은": 3193,
      "day": 3194,
      "your": 3195,
      "장르": 3196,
      "사항을": 3197,
      "신뢰": 3198,
      "효율": 3199,
      "실제로": 3200,
      "ype": 3201,
      "v1": 3202,
      "DailoSe": 3203,
      "DailoSeq": 3204,
      "열심히": 3205,
      "작성해": 3206,
      "제공합니다": 3207,
      "ro": 3208,
      "오늘의": 3209,
      "스크": 3210,
      "아내": 3211,
      "Type": 3212,
      "프로그래": 3213,
      "자유": 3214,
      "요인": 3215,
      "eatType": 3216,
      "소설": 3217,
      "지속": 3218,
      "타고": 3219,
      "개를": 3220,
      "동사": 3221,
      "먹고": 3222,
      "도우": 3223,
      "할까요": 3224,
      "집에": 3225,
      "30": 3226,
      "사람은": 3227,
      "들면": 3228,
      "릭터": 3229,
      "최고": 3230,
      "확인하려면": 3231,
      "캐릭터": 3232,
      "프로그래밍": 3233,
      "검토": 3234,
      "추론": 3235,
      "파악": 3236,
      "화를": 3237,
      "주제를": 3238,
      "만나": 3239,
      "매일": 3240,
      "그룹": 3241,
      "특히": 3242,
      "봐요": 3243,
      "고양이": 3244,
      "입니까": 3245,
      "200": 3246,
      "도가": 3247,
      "물의": 3248,
      "into": 3249,
      "의사": 3250,
      "연결": 3251,
      "앱이나": 3252,
      "않을": 3253,
      "확실": 3254,
      "판단": 3255,
      "알려주십시오": 3256,
      "교통": 3257,
      "하려고": 3258,
      "니스": 3259,
      "만점": 3260,
      "오래": 3261,
      "필요하시": 3262,
      "분류합니다": 3263,
      "하면서": 3264,
      "아주": 3265,
      "전략": 3266,
      "5점": 3267,
      "시다": 3268,
      "십니까": 3269,
      "닙니다": 3270,
      "그림": 3271,
      "기꺼": 3272,
      "기꺼이": 3273,
      "스러워": 3274,
      "가능성이": 3275,
      "아니라": 3276,
      "받고": 3277,
      "잖아": 3278,
      "인가": 3279,
      "영국": 3280,
      "져서": 3281,
      "아닙니다": 3282,
      "거짓": 3283,
      "시장": 3284,
      "커피숍": 3285,
      "찾고": 3286,
      "드릴까요": 3287,
      "코드를": 3288,
      "말하세요": 3289,
      "비용": 3290,
      "지고": 3291,
      "없지만": 3292,
      "간의": 3293,
      "작업을": 3294,
      "li": 3295,
      "영화를": 3296,
      "혹시": 3297,
      "거예요": 3298,
      "미치는": 3299,
      "가져": 3300,
      "다섯": 3301,
      "만드는": 3302,
      "중요하다고": 3303,
      "감이": 3304,
      "식사": 3305,
      "이동": 3306,
      "정부": 3307,
      "데이터에": 3308,
      "이라는": 3309,
      "기다": 3310,
      "입은": 3311,
      "사용할": 3312,
      "제공된": 3313,
      "인기": 3314,
      "가정": 3315,
      "친구와": 3316,
      "시대": 3317,
      "조건": 3318,
      "친화적": 3319,
      "공원": 3320,
      "향상": 3321,
      "료를": 3322,
      "충분": 3323,
      "하도록": 3324,
      "될까요": 3325,
      "바꾸": 3326,
      "짜증": 3327,
      "느낌": 3328,
      "해도": 3329,
      "사용자의": 3330,
      "못하는": 3331,
      "유럽": 3332,
      "문제의": 3333,
      "특징": 3334,
      "으로는": 3335,
      "리에": 3336,
      "be": 3337,
      "ld": 3338,
      "and": 3339,
      "싶은데": 3340,
      "뭐야": 3341,
      "력이": 3342,
      "자식": 3343,
      "단순": 3344,
      "정답은": 3345,
      "접근할": 3346,
      "하늘": 3347,
      "회의": 3348,
      "가게": 3349,
      "항목": 3350,
      "이벤": 3351,
      "슬퍼": 3352,
      "미칠": 3353,
      "신체": 3354,
      "비서로": 3355,
      "도우미": 3356,
      "아파": 3357,
      "설명해주세요": 3358,
      "ore": 3359,
      "시피": 3360,
      "부분에": 3361,
      "같아서": 3362,
      "혼란": 3363,
      "일까요": 3364,
      "하십니까": 3365,
      "만든": 3366,
      "무엇이든": 3367,
      "기회": 3368,
      "바람": 3369,
      "원래": 3370,
      "뛰어": 3371,
      "했나요": 3372,
      "보통": 3373,
      "표현을": 3374,
      "위험": 3375,
      "하다": 3376,
      "기의": 3377,
      "친구들이": 3378,
      "명확하게": 3379,
      "묘사": 3380,
      "건가요": 3381,
      "말합니다": 3382,
      "답해": 3383,
      "상호": 3384,
      "좋으": 3385,
      "wi": 3386,
      "분석하고": 3387,
      "인데": 3388,
      "사항이": 3389,
      "맥락": 3390,
      "싫어": 3391,
      "설립": 3392,
      "내는": 3393,
      "저녁": 3394,
      "자꾸": 3395,
      "복잡한": 3396,
      "웹사이트를": 3397,
      "for": 3398,
      "생각하시나요": 3399,
      "직업": 3400,
      "연습": 3401,
      "ar": 3402,
      "빨리": 3403,
      "중에서": 3404,
      "아빠": 3405,
      "전체": 3406,
      "읽고": 3407,
      "줍니다": 3408,
      "정신": 3409,
      "인이": 3410,
      "레시피": 3411,
      "예상": 3412,
      "전제에": 3413,
      "받을": 3414,
      "즐거": 3415,
      "하셨": 3416,
      "느껴": 3417,
      "집중": 3418,
      "우시군요": 3419,
      "찾으": 3420,
      "측면": 3421,
      "라우": 3422,
      "생물": 3423,
      "형용": 3424,
      "방문": 3425,
      "인구": 3426,
      "단어가": 3427,
      "소녀": 3428,
      "할지": 3429,
      "아니오": 3430,
      "설명해주시면": 3431,
      "에서의": 3432,
      "어렵습니다": 3433,
      "않으": 3434,
      "Please": 3435,
      "이지": 3436,
      "중요합니다": 3437,
      "로나": 3438,
      "oo": 3439,
      "그것은": 3440,
      "동의": 3441,
      "남편이": 3442,
      "있으시다면": 3443,
      "식별합니다": 3444,
      "도는": 3445,
      "와서": 3446,
      "프트": 3447,
      "책임": 3448,
      "기업": 3449,
      "키워": 3450,
      "듭니다": 3451,
      "해결하는": 3452,
      "글을": 3453,
      "제일": 3454,
      "힘드시겠어요": 3455,
      "그게": 3456,
      "영화의": 3457,
      "사람의": 3458,
      "주어지면": 3459,
      "것인지": 3460,
      "있기": 3461,
      "기후": 3462,
      "재밌": 3463,
      "소년": 3464,
      "분위": 3465,
      "식이": 3466,
      "만드세요": 3467,
      "이루어": 3468,
      "긍정적": 3469,
      "위를": 3470,
      "유명한": 3471,
      "바로": 3472,
      "기쁘": 3473,
      "도로": 3474,
      "현대": 3475,
      "우리가": 3476,
      "표시": 3477,
      "스마": 3478,
      "번호": 3479,
      "다음에": 3480,
      "살아": 3481,
      "주제나": 3482,
      "자전": 3483,
      "찾을": 3484,
      "그건": 3485,
      "식에": 3486,
      "주어집니다": 3487,
      "불편": 3488,
      "점은": 3489,
      "죄송합니다만": 3490,
      "구절": 3491,
      "그렇지": 3492,
      "인생": 3493,
      "상관": 3494,
      "미치": 3495,
      "사람들": 3496,
      "마다": 3497,
      "디자": 3498,
      "프로젝트에": 3499,
      "스는": 3500,
      "기준": 3501,
      "명사": 3502,
      "질문은": 3503,
      "사이의": 3504,
      "요약해": 3505,
      "카페": 3506,
      "돕기": 3507,
      "내용이": 3508,
      "리즘": 3509,
      "부족": 3510,
      "id": 3511,
      "따뜻": 3512,
      "생각이": 3513,
      "나이가": 3514,
      "일한": 3515,
      "영어가": 3516,
      "이탈리아": 3517,
      "구문": 3518,
      "선호": 3519,
      "활동을": 3520,
      "아마": 3521,
      "앉아": 3522,
      "나서": 3523,
      "리카": 3524,
      "진술": 3525,
      "생산": 3526,
      "숫자를": 3527,
      "코로나": 3528,
      "translate": 3529,
      "대체": 3530,
      "어떤가요": 3531,
      "사과를": 3532,
      "감사합니다": 3533,
      "학적": 3534,
      "회사에서": 3535,
      "제공하거나": 3536,
      "완전히": 3537,
      "문제로": 3538,
      "단어는": 3539,
      "찾는": 3540,
      "구매": 3541,
      "달라": 3542,
      "기능을": 3543,
      "여러분이": 3544,
      "여성": 3545,
      "특별한": 3546,
      "말이": 3547,
      "쁩니다": 3548,
      "풀고": 3549,
      "경기": 3550,
      "몸이": 3551,
      "전쟁": 3552,
      "주장": 3553,
      "알고리즘": 3554,
      "드를": 3555,
      "메시지를": 3556,
      "프로세스의": 3557,
      "동생": 3558,
      "Kore": 3559,
      "기쁩니다": 3560,
      "있었습니다": 3561,
      "방식으로": 3562,
      "도와주실": 3563,
      "are": 3564,
      "문장이나": 3565,
      "이벤트": 3566,
      "수의": 3567,
      "물어봐": 3568,
      "ve": 3569,
      "받는": 3570,
      "답변해": 3571,
      "스럽게": 3572,
      "각각": 3573,
      "응응": 3574,
      "소를": 3575,
      "여성이": 3576,
      "물건": 3577,
      "만듭니다": 3578,
      "지도": 3579,
      "릅니다": 3580,
      "독특": 3581,
      "반응": 3582,
      "후에": 3583,
      "고려할": 3584,
      "완벽": 3585,
      "수업": 3586,
      "지내": 3587,
      "주고": 3588,
      "동시에": 3589,
      "만약": 3590,
      "est": 3591,
      "통계": 3592,
      "스를": 3593,
      "앞으로": 3594,
      "여부": 3595,
      "질문이나": 3596,
      "따르면": 3597,
      "신경": 3598,
      "누가": 3599,
      "기반으로": 3600,
      "계신지": 3601,
      "기대": 3602,
      "대신": 3603,
      "25": 3604,
      "사람을": 3605,
      "만들어주세요": 3606,
      "산업": 3607,
      "돌아": 3608,
      "Korean": 3609,
      "생각을": 3610,
      "봅시다": 3611,
      "트윗": 3612,
      "요일": 3613,
      "포함된": 3614,
      "워서": 3615,
      "우리의": 3616,
      "백을": 3617,
      "모르겠어": 3618,
      "위에": 3619,
      "지지": 3620,
      "란색": 3621,
      "테이": 3622,
      "현실": 3623,
      "아내가": 3624,
      "기타": 3625,
      "pro": 3626,
      "모습": 3627,
      "돈이": 3628,
      "정렬": 3629,
      "나이": 3630,
      "199": 3631,
      "후회": 3632,
      "통령": 3633,
      "만에": 3634,
      "들고": 3635,
      "그들의": 3636,
      "크게": 3637,
      "테스트": 3638,
      "균형": 3639,
      "기로": 3640,
      "영화에": 3641,
      "today": 3642,
      "식물": 3643,
      "인공지능으로서": 3644,
      "그들은": 3645,
      "hat": 3646,
      "축하": 3647,
      "가지를": 3648,
      "상세하게": 3649,
      "얻으": 3650,
      "피드": 3651,
      "중심": 3652,
      "제게": 3653,
      "이해하는": 3654,
      "이해할": 3655,
      "여기서": 3656,
      "장난": 3657,
      "유전": 3658,
      "주지": 3659,
      "참여": 3660,
      "주시겠습니까": 3661,
      "상황이": 3662,
      "란드": 3663,
      "배열": 3664,
      "계획을": 3665,
      "다하겠습니다": 3666,
      "불가능합니다": 3667,
      "근처에": 3668,
      "배경": 3669,
      "기계": 3670,
      "디자인": 3671,
      "개가": 3672,
      "시키는": 3673,
      "대부분": 3674,
      "ne": 3675,
      "그런데": 3676,
      "그것을": 3677,
      "대통령": 3678,
      "라도": 3679,
      "먹을": 3680,
      "싶으신지": 3681,
      "이유가": 3682,
      "논리": 3683,
      "위의": 3684,
      "자전거": 3685,
      "듣고": 3686,
      "능력을": 3687,
      "말해주세요": 3688,
      "추출": 3689,
      "머리": 3690,
      "받으": 3691,
      "었나요": 3692,
      "저의": 3693,
      "우주": 3694,
      "부모님이": 3695,
      "물체": 3696,
      "효과적인": 3697,
      "일로": 3698,
      "식의": 3699,
      "3년": 3700,
      "주말": 3701,
      "드라": 3702,
      "바다": 3703,
      "제거": 3704,
      "기분은": 3705,
      "말해": 3706,
      "졌어": 3707,
      "사가": 3708,
      "ould": 3709,
      "제한": 3710,
      "방법은": 3711,
      "독립": 3712,
      "지정": 3713,
      "산을": 3714,
      "시나요": 3715,
      "저장": 3716,
      "치를": 3717,
      "다행": 3718,
      "ha": 3719,
      "그가": 3720,
      "더라고": 3721,
      "표현할": 3722,
      "설명하세요": 3723,
      "마세요": 3724,
      "면서": 3725,
      "기록": 3726,
      "시각": 3727,
      "속상하시겠어요": 3728,
      "이름이": 3729,
      "제를": 3730,
      "스페인어": 3731,
      "돕는": 3732,
      "없어요": 3733,
      "기여": 3734,
      "상의": 3735,
      "스마트": 3736,
      "아름다운": 3737,
      "정당": 3738,
      "전통": 3739,
      "단어들을": 3740,
      "필수": 3741,
      "안정": 3742,
      "움직": 3743,
      "집에서": 3744,
      "한다는": 3745,
      "결합": 3746,
      "단어로": 3747,
      "죄송하지만": 3748,
      "고민이": 3749,
      "this": 3750,
      "감독": 3751,
      "로는": 3752,
      "두려": 3753,
      "이론": 3754,
      "정리": 3755,
      "것과": 3756,
      "소프트": 3757,
      "왔어": 3758,
      "규칙": 3759,
      "어땠": 3760,
      "인공지능이기": 3761,
      "도구": 3762,
      "사실을": 3763,
      "수준": 3764,
      "했던": 3765,
      "198": 3766,
      "v1이": 3767,
      "qu": 3768,
      "드는": 3769,
      "가를": 3770,
      "자신이": 3771,
      "아버": 3772,
      "with": 3773,
      "100": 3774,
      "싶다": 3775,
      "문자열": 3776,
      "받은": 3777,
      "확인할": 3778,
      "반복": 3779,
      "추적": 3780,
      "기관": 3781,
      "가설은": 3782,
      "니아": 3783,
      "물질": 3784,
      "버스": 3785,
      "거의": 3786,
      "책의": 3787,
      "친구에게": 3788,
      "귀하": 3789,
      "프랑스어로": 3790,
      "감소": 3791,
      "신뢰할": 3792,
      "못하": 3793,
      "지역의": 3794,
      "대기": 3795,
      "제공해주시면": 3796,
      "먹어": 3797,
      "상대": 3798,
      "나의": 3799,
      "비서": 3800,
      "영화는": 3801,
      "었는데": 3802,
      "흐름": 3803,
      "생겼": 3804,
      "배우고": 3805,
      "말하는": 3806,
      "성에": 3807,
      "나은": 3808,
      "16": 3809,
      "친구들과": 3810,
      "때는": 3811,
      "이야기하고": 3812,
      "저렴": 3813,
      "사진을": 3814,
      "노후": 3815,
      "우승": 3816,
      "202": 3817,
      "웨어": 3818,
      "나고": 3819,
      "비행": 3820,
      "치료": 3821,
      "번역할": 3822,
      "턴트": 3823,
      "생각하십니까": 3824,
      "과일": 3825,
      "리의": 3826,
      "자녀": 3827,
      "공부를": 3828,
      "독일": 3829,
      "1년": 3830,
      "경쟁": 3831,
      "시간에": 3832,
      "어떠한": 3833,
      "대문자": 3834,
      "이다": 3835,
      "거기": 3836,
      "요새": 3837,
      "표현하는": 3838,
      "누군": 3839,
      "학교에서": 3840,
      "아침에": 3841,
      "14": 3842,
      "여행을": 3843,
      "드라마": 3844,
      "기술을": 3845,
      "느낄": 3846,
      "어머니": 3847,
      "직원": 3848,
      "드리기": 3849,
      "메이": 3850,
      "냅니다": 3851,
      "시다면": 3852,
      "완성": 3853,
      "수영": 3854,
      "이메": 3855,
      "나에게": 3856,
      "삼각형": 3857,
      "주시지": 3858,
      "정확히": 3859,
      "시스턴트": 3860,
      "지침": 3861,
      "사람들에게": 3862,
      "해주실": 3863,
      "았는데": 3864,
      "여름": 3865,
      "되어야": 3866,
      "어때요": 3867,
      "놀라": 3868,
      "값을": 3869,
      "좋겠습니다": 3870,
      "부정적": 3871,
      "드려": 3872,
      "위치를": 3873,
      "괴로": 3874,
      "겨울": 3875,
      "번역하면": 3876,
      "위로": 3877,
      "그럴": 3878,
      "운드": 3879,
      "제대로": 3880,
      "문법적으로": 3881,
      "옵션을": 3882,
      "하셨군요": 3883,
      "번역이": 3884,
      "가설을": 3885,
      "비즈": 3886,
      "유용": 3887,
      "구두": 3888,
      "생명": 3889,
      "인정": 3890,
      "올바르게": 3891,
      "우는": 3892,
      "어디서": 3893,
      "되면": 3894,
      "어는": 3895,
      "강조": 3896,
      "맞게": 3897,
      "요리를": 3898,
      "분야에서": 3899,
      "임무": 3900,
      "보니": 3901,
      "드릴게요": 3902,
      "없으": 3903,
      "비즈니스": 3904,
      "문서": 3905,
      "있을까": 3906,
      "외로": 3907,
      "이전": 3908,
      "존중": 3909,
      "친구를": 3910,
      "바이": 3911,
      "지나": 3912,
      "wer": 3913,
      "장을": 3914,
      "st": 3915,
      "정답": 3916,
      "못한": 3917,
      "문구": 3918,
      "생태": 3919,
      "``": 3920,
      "이해가": 3921,
      "확률": 3922,
      "분석을": 3923,
      "실망": 3924,
      "엄마가": 3925,
      "은퇴": 3926,
      "아이디": 3927,
      "아니야": 3928,
      "명령": 3929,
      "식은": 3930,
      "다해": 3931,
      "대해서": 3932,
      "해를": 3933,
      "관계를": 3934,
      "할까": 3935,
      "17": 3936,
      "중인": 3937,
      "리지": 3938,
      "재료": 3939,
      "성적": 3940,
      "힘든": 3941,
      "담을": 3942,
      "리스": 3943,
      "이에요": 3944,
      "가야": 3945,
      "최고의": 3946,
      "웹사이트나": 3947,
      "편안": 3948,
      "발표": 3949,
      "것처럼": 3950,
      "짧은": 3951,
      "사용됩니다": 3952,
      "즐거운": 3953,
      "다녀": 3954,
      "계를": 3955,
      "얻을": 3956,
      "점에서": 3957,
      "미안합니다": 3958,
      "친화적인": 3959,
      "관련이": 3960,
      "있었나요": 3961,
      "함을": 3962,
      "어디에": 3963,
      "강아": 3964,
      "상처": 3965,
      "독특한": 3966,
      "오랜": 3967,
      "주에": 3968,
      "누구인가요": 3969,
      "나중에": 3970,
      "아이디어": 3971,
      "원인": 3972,
      "도와드리는": 3973,
      "지에": 3974,
      "화학": 3975,
      "스타일": 3976,
      "미국의": 3977,
      "르고": 3978,
      "빠르게": 3979,
      "작동": 3980,
      "핵심": 3981,
      "하이": 3982,
      "한글": 3983,
      "어디인가요": 3984,
      "산소": 3985,
      "정확하고": 3986,
      "★★": 3987,
      "좋아해": 3988,
      "행동을": 3989,
      "기사를": 3990,
      "의료": 3991,
      "전히": 3992,
      "차이": 3993,
      "리뷰를": 3994,
      "뜻입니다": 3995,
      "명시": 3996,
      "빨간": 3997,
      "원을": 3998,
      "세상": 3999,
      "위치의": 4000,
      "세계에서": 4001,
      "요구": 4002,
      "두고": 4003,
      "연애": 4004,
      "기간": 4005,
      "공간": 4006,
      "분석해": 4007,
      "정을": 4008,
      "나오": 4009,
      "변화를": 4010,
      "관심이": 4011,
      "개념을": 4012,
      "50": 4013,
      "수로": 4014,
      "그치": 4015,
      "을까요": 4016,
      "계획이": 4017,
      "미래의": 4018,
      "역할은": 4019,
      "언제나": 4020,
      "다르": 4021,
      "텍스트가": 4022,
      "보입니다": 4023,
      "가면": 4024,
      "만한": 4025,
      "이혼": 4026,
      "소통": 4027,
      "간결": 4028,
      "쇼핑": 4029,
      "고양이는": 4030,
      "움을": 4031,
      "운영": 4032,
      "상황에서": 4033,
      "안을": 4034,
      "ly": 4035,
      "츠를": 4036,
      "로봇": 4037,
      "패스트": 4038,
      "강력": 4039,
      "않았어요": 4040,
      "강화": 4041,
      "인식": 4042,
      "도덕": 4043,
      "예보를": 4044,
      "소리": 4045,
      "197": 4046,
      "구하고": 4047,
      "파이": 4048,
      "괴롭": 4049,
      "반영": 4050,
      "지난": 4051,
      "아서": 4052,
      "잠재": 4053,
      "셨겠어요": 4054,
      "ge": 4055,
      "세포": 4056,
      "있었어": 4057,
      "아이디어를": 4058,
      "1단계": 4059,
      "장이": 4060,
      "텍스트의": 4061,
      "2단계": 4062,
      "설명이": 4063,
      "2년": 4064,
      "스마트폰": 4065,
      "께서": 4066,
      "요약을": 4067,
      "여전히": 4068,
      "고양이가": 4069,
      "르는": 4070,
      "아들이": 4071,
      "거리": 4072,
      "quest": 4073,
      "힘드시군요": 4074,
      "의견을": 4075,
      "설계": 4076,
      "만들기": 4077,
      "찾아보세요": 4078,
      "준비를": 4079,
      "텍스트에": 4080,
      "소프트웨어": 4081,
      "장애": 4082,
      "최대한": 4083,
      "\",": 4084,
      "ke": 4085,
      "am": 4086,
      "ant": 4087,
      "운전": 4088,
      "형용사": 4089,
      "사용자님": 4090,
      "패스트푸": 4091,
      "투자": 4092,
      "자리": 4093,
      "건강에": 4094,
      "점점": 4095,
      "감정이나": 4096,
      "주신": 4097,
      "해결해": 4098,
      "한국어를": 4099,
      "가득": 4100,
      "나만": 4101,
      "무엇일까요": 4102,
      "인류": 4103,
      "스페인어로": 4104,
      "드가": 4105,
      "즐길": 4106,
      "성적이": 4107,
      "이후": 4108,
      "즐기": 4109,
      "많으": 4110,
      "롭게": 4111,
      "대형": 4112,
      "동일한": 4113,
      "질문과": 4114,
      "미만": 4115,
      "보트": 4116,
      "비슷": 4117,
      "하려는": 4118,
      "심해": 4119,
      "얼굴": 4120,
      "같은데": 4121,
      "물고": 4122,
      "찾기": 4123,
      "스트레스를": 4124,
      "논의": 4125,
      "나와": 4126,
      "과정을": 4127,
      "방법이": 4128,
      "경제적": 4129,
      "설명해주실": 4130,
      "프랑스어": 4131,
      "전제는": 4132,
      "어시스턴트": 4133,
      "판매": 4134,
      "답변은": 4135,
      "감정이": 4136,
      "적용": 4137,
      "누군가": 4138,
      "대의": 4139,
      "정책": 4140,
      "쉬운": 4141,
      "대부분의": 4142,
      "설명해보세요": 4143,
      "라면": 4144,
      "적은": 4145,
      "스터": 4146,
      "제품을": 4147,
      "비를": 4148,
      "보존": 4149,
      "발음": 4150,
      "그렇구나": 4151,
      "필요하시다면": 4152,
      "나눠": 4153,
      "혁신": 4154,
      "나한테": 4155,
      "이해를": 4156,
      "게임을": 4157,
      "질을": 4158,
      "요청에": 4159,
      "정한": 4160,
      "속성을": 4161,
      "과정의": 4162,
      "봅니다": 4163,
      "장면": 4164,
      "다들": 4165,
      "그녀의": 4166,
      "종교": 4167,
      "되며": 4168,
      "상상": 4169,
      "ic": 4170,
      "해결책을": 4171,
      "되었나요": 4172,
      "pp": 4173,
      "다음은": 4174,
      "따돌": 4175,
      "196": 4176,
      "살고": 4177,
      "학교에": 4178,
      "하네": 4179,
      "식사를": 4180,
      "싶으시다면": 4181,
      "소개": 4182,
      "문화적": 4183,
      "면접": 4184,
      "완료": 4185,
      "자고": 4186,
      "플랫": 4187,
      "응답": 4188,
      "피드백을": 4189,
      "받았어": 4190,
      "차를": 4191,
      "악기인지": 4192,
      "지금은": 4193,
      "훌륭": 4194,
      "디오": 4195,
      "도전": 4196,
      "못해": 4197,
      "바라": 4198,
      "친구랑": 4199,
      "전기": 4200,
      "하더라": 4201,
      "해석해": 4202,
      "여부를": 4203,
      "플랫폼": 4204,
      "기능은": 4205,
      "스로": 4206,
      "했을": 4207,
      "주제가": 4208,
      "까지의": 4209,
      "대표": 4210,
      "장치": 4211,
      "없기": 4212,
      "되게": 4213,
      "워크": 4214,
      "계시는군요": 4215,
      "번역될": 4216,
      "려서": 4217,
      "유사": 4218,
      "디지": 4219,
      "확인하는": 4220,
      "참고": 4221,
      "였습니다": 4222,
      "일은": 4223,
      "구분": 4224,
      "전문가": 4225,
      "말고": 4226,
      "vid": 4227,
      "ㅜㅜ": 4228,
      "전혀": 4229,
      "마을": 4230,
      "인의": 4231,
      "answer": 4232,
      "합을": 4233,
      "스토": 4234,
      "뉴욕": 4235,
      "거리를": 4236,
      "편집": 4237,
      "TV": 4238,
      "말로": 4239,
      "번역하는": 4240,
      "도와드리기": 4241,
      "싶다면": 4242,
      "바나": 4243,
      "알리": 4244,
      "국의": 4245,
      "디지털": 4246,
      "에요": 4247,
      "미쳤": 4248,
      "패턴": 4249,
      "지구의": 4250,
      "파운드": 4251,
      "제공하고": 4252,
      "졌습니다": 4253,
      "반면": 4254,
      "언제야": 4255,
      "봤는데": 4256,
      "학에서": 4257,
      "보겠습니다": 4258,
      "물은": 4259,
      "무서": 4260,
      "요소를": 4261,
      "하나의": 4262,
      "장은": 4263,
      "ue": 4264,
      "약간": 4265,
      "직면": 4266,
      "유를": 4267,
      "사망": 4268,
      "찾아주세요": 4269,
      "것이라고": 4270,
      "주인공": 4271,
      "검은": 4272,
      "성격": 4273,
      "해변": 4274,
      "돼서": 4275,
      "프로젝트를": 4276,
      "오류를": 4277,
      "취미": 4278,
      "원하시는지": 4279,
      "질문하실": 4280,
      "불안해": 4281,
      "얘기": 4282,
      "자연스럽게": 4283,
      "먹는다": 4284,
      "상호작용": 4285,
      "워요": 4286,
      "시리": 4287,
      "해는": 4288,
      "나타내는": 4289,
      "도에": 4290,
      "전화": 4291,
      "정당화": 4292,
      "건강이": 4293,
      "유지하는": 4294,
      "보시는": 4295,
      "주시기": 4296,
      "연주": 4297,
      "question": 4298,
      "하시면": 4299,
      "친구들": 4300,
      "문구를": 4301,
      "안에": 4302,
      "역은": 4303,
      "국제": 4304,
      "좋겠다": 4305,
      "유형의": 4306,
      "provid": 4307,
      "언어는": 4308,
      "권장": 4309,
      "퇴직": 4310,
      "케이션": 4311,
      "친절": 4312,
      "러시아": 4313,
      "산화": 4314,
      "야구": 4315,
      "명이": 4316,
      "우선": 4317,
      "센터": 4318,
      "그만": 4319,
      "애플": 4320,
      "입고": 4321,
      "내용에": 4322,
      "겠네요": 4323,
      "내에서": 4324,
      "기반의": 4325,
      "그것이": 4326,
      "시나": 4327,
      "출력합니다": 4328,
      "소리를": 4329,
      "0년": 4330,
      "비서로서": 4331,
      "ver": 4332,
      "고등": 4333,
      "업무를": 4334,
      "클라우": 4335,
      "참조": 4336,
      "자연어": 4337,
      "윤리적": 4338,
      "순간": 4339,
      "기술의": 4340,
      "있을지": 4341,
      "사람들을": 4342,
      "많아서": 4343,
      "ood": 4344,
      "작성한": 4345,
      "하나를": 4346,
      "구하는": 4347,
      "지하": 4348,
      "원하시나요": 4349,
      "기회를": 4350,
      "않으면": 4351,
      "어떨": 4352,
      "있으므로": 4353,
      "카테": 4354,
      "AI입니다": 4355,
      "날짜를": 4356,
      "결국": 4357,
      "있어야": 4358,
      "금을": 4359,
      "마케": 4360,
      "5년": 4361,
      "실험": 4362,
      "카테고": 4363,
      "느끼지는": 4364,
      "비밀": 4365,
      "un": 4366,
      "전제가": 4367,
      "요청을": 4368,
      "깊은": 4369,
      "말할": 4370,
      "아이가": 4371,
      "우고": 4372,
      "ri": 4373,
      "바꿔": 4374,
      "이야기해": 4375,
      "문맥에": 4376,
      "블루": 4377,
      "했는지": 4378,
      "어휘": 4379,
      "알파": 4380,
      "월에": 4381,
      "가치를": 4382,
      "걱정이야": 4383,
      "대회": 4384,
      "플레이": 4385,
      "님이": 4386,
      "do": 4387,
      "여러분을": 4388,
      "봐야": 4389,
      "단락을": 4390,
      "멋진": 4391,
      "밖에": 4392,
      "라인을": 4393,
      "자연스러운": 4394,
      "보이": 4395,
      "베이": 4396,
      "었던": 4397,
      "필요하신": 4398,
      "방향": 4399,
      "조직": 4400,
      "한국의": 4401,
      "따뜻한": 4402,
      "환경을": 4403,
      "이상의": 4404,
      "13": 4405,
      "체를": 4406,
      "너도": 4407,
      "영양": 4408,
      "어려움이": 4409,
      "구조를": 4410,
      "하셔서": 4411,
      "동료": 4412,
      "논리적으로": 4413,
      "사용된": 4414,
      "3단계": 4415,
      "죄책": 4416,
      "체의": 4417,
      "파란색": 4418,
      "군대": 4419,
      "매력": 4420,
      "받았": 4421,
      "어떠신가요": 4422,
      "옷을": 4423,
      "제공하기": 4424,
      "호텔": 4425,
      "국가의": 4426,
      "운동을": 4427,
      "어떠세요": 4428,
      "곳에": 4429,
      "있거나": 4430,
      "임무는": 4431,
      "없고": 4432,
      "하나는": 4433,
      "대중": 4434,
      "사업": 4435,
      "피부": 4436,
      "입력해": 4437,
      "탄소": 4438,
      "트리": 4439,
      "재미있는": 4440,
      "차가": 4441,
      "좋아요": 4442,
      "당한": 4443,
      "주제로": 4444,
      "없다고": 4445,
      "젊은": 4446,
      "조사": 4447,
      "태어났습니다": 4448,
      "맞춤": 4449,
      "싶은지": 4450,
      "테이블": 4451,
      "때마다": 4452,
      "수록": 4453,
      "음악을": 4454,
      "대답해": 4455,
      "진로": 4456,
      "텍스트에서": 4457,
      "상세히": 4458,
      "림을": 4459,
      "했다고": 4460,
      "레스토랑으로": 4461,
      "평가를": 4462,
      "비싸": 4463,
      "주식": 4464,
      "provide": 4465,
      "24": 4466,
      "기쁨": 4467,
      "포함되어": 4468,
      "건축": 4469,
      "상징": 4470,
      "약속": 4471,
      "지역에": 4472,
      "하나로": 4473,
      "아프리카": 4474,
      "못해서": 4475,
      "물리": 4476,
      "나타냅니다": 4477,
      "준비는": 4478,
      "패스트푸드": 4479,
      "마케팅": 4480,
      "골든": 4481,
      "단을": 4482,
      "인한": 4483,
      "추천드립니다": 4484,
      "일치": 4485,
      "작가": 4486,
      "자료": 4487,
      "사이에": 4488,
      "요즘은": 4489,
      "필요하시면": 4490,
      "시리즈": 4491,
      "번역하세요": 4492,
      "해당하는": 4493,
      "제공하며": 4494,
      "뉴스를": 4495,
      "귀하의": 4496,
      "명확한": 4497,
      "산책": 4498,
      "해드릴": 4499,
      "사람에게": 4500,
      "서비스나": 4501,
      "역사적": 4502,
      "이미지를": 4503,
      "지의": 4504,
      "결정을": 4505,
      "상태를": 4506,
      "하시는군요": 4507,
      "ex": 4508,
      "그랬": 4509,
      "하던": 4510,
      "아래에": 4511,
      "문제나": 4512,
      "il": 4513,
      "순으로": 4514,
      "아무도": 4515,
      "건강한": 4516,
      "벌써": 4517,
      "정치적": 4518,
      "문제는": 4519,
      "가을": 4520,
      "인상": 4521,
      "궁금합니다": 4522,
      "목표를": 4523,
      "전제를": 4524,
      "스러우": 4525,
      "사용자가": 4526,
      "배우는": 4527,
      "보기": 4528,
      "결과가": 4529,
      "문학": 4530,
      "속상해": 4531,
      "얼음": 4532,
      "알려드릴": 4533,
      "이익": 4534,
      "직장에서": 4535,
      "적어": 4536,
      "기와": 4537,
      "삶을": 4538,
      "직접적인": 4539,
      "무엇입니까": 4540,
      "알파벳": 4541,
      "꿈을": 4542,
      "기분을": 4543,
      "생태계": 4544,
      "강력한": 4545,
      "법칙": 4546,
      "확인하고": 4547,
      "물어보세요": 4548,
      "올림": 4549,
      "반대": 4550,
      "조각": 4551,
      "다릅니다": 4552,
      "9년": 4553,
      "인공지능이라서": 4554,
      "하루를": 4555,
      "소년이": 4556,
      "달라고": 4557,
      "소비": 4558,
      "결과는": 4559,
      "나열하세요": 4560,
      "순서": 4561,
      "있으니": 4562,
      "이유를": 4563,
      "번에": 4564,
      "다하고": 4565,
      "설명할": 4566,
      "창의적인": 4567,
      "색상": 4568,
      "점에": 4569,
      "발전에": 4570,
      "제공하는데": 4571,
      "형태로": 4572,
      "하니": 4573,
      "하시겠습니까": 4574,
      "시즌": 4575,
      "특별히": 4576,
      "찾으세요": 4577,
      "최소": 4578,
      "제작": 4579,
      "버전": 4580,
      "ask": 4581,
      "브랜드": 4582,
      "이지만": 4583,
      "드리도록": 4584,
      "술을": 4585,
      "용어": 4586,
      "What": 4587,
      "미안해요": 4588,
      "상세한": 4589,
      "곳에서": 4590,
      "한다면": 4591,
      "방법으로": 4592,
      "부드": 4593,
      "남자는": 4594,
      "일정을": 4595,
      "지하철": 4596,
      "헤드": 4597,
      "소녀가": 4598,
      "문제인지": 4599,
      "흥미로운": 4600,
      "증거": 4601,
      "om": 4602,
      "올라": 4603,
      "평화": 4604,
      "10월": 4605,
      "그러게": 4606,
      "직접적으로": 4607,
      "금융": 4608,
      "이유로": 4609,
      "무시": 4610,
      "일으": 4611,
      "흰색": 4612,
      "충분한": 4613,
      "기하": 4614,
      "나온": 4615,
      "휴대": 4616,
      "사람들과": 4617,
      "사람들의": 4618,
      "마음에": 4619,
      "잘못된": 4620,
      "하는가": 4621,
      "환경에": 4622,
      "아빠가": 4623,
      "ry": 4624,
      "제공해드릴": 4625,
      "스스로": 4626,
      "희망": 4627,
      "회사에": 4628,
      "렸어": 4629,
      "중간": 4630,
      "고려해야": 4631,
      "4년": 4632,
      "관해": 4633,
      "상품": 4634,
      "생겨": 4635,
      "보자": 4636,
      "포유": 4637,
      "과정에서": 4638,
      "카메": 4639,
      "모양": 4640,
      "가기": 4641,
      "정보든지": 4642,
      "얼마인가요": 4643,
      "집을": 4644,
      "질병": 4645,
      "다루": 4646,
      "알려져": 4647,
      "오빠": 4648,
      "점심": 4649,
      "대문자로": 4650,
      "이로": 4651,
      "새로": 4652,
      "8년": 4653,
      "인사": 4654,
      "공유해": 4655,
      "명을": 4656,
      "추론을": 4657,
      "미디어": 4658,
      "포유류": 4659,
      "캐나": 4660,
      "어려워": 4661,
      "Tr": 4662,
      "표현은": 4663,
      "생각하고": 4664,
      "나오는": 4665,
      "상승": 4666,
      "가리": 4667,
      "아이들이": 4668,
      "조심": 4669,
      "업데이트를": 4670,
      "가끔": 4671,
      "학적으로": 4672,
      "마시": 4673,
      "거래": 4674,
      "건설": 4675,
      "보장": 4676,
      "예시": 4677,
      "헤어": 4678,
      "if": 4679,
      "풍부": 4680,
      "결정하는": 4681,
      "된다": 4682,
      "물리적인": 4683,
      "엔진": 4684,
      "전자": 4685,
      "과학적": 4686,
      "추고": 4687,
      "가르": 4688,
      "7년": 4689,
      "끄러": 4690,
      "명은": 4691,
      "고마": 4692,
      "과제에서는": 4693,
      "대학교": 4694,
      "놀고": 4695,
      "알려드리지": 4696,
      "궁금해요": 4697,
      "만점에": 4698,
      "회사의": 4699,
      "물에": 4700,
      "억울": 4701,
      "효과적으로": 4702,
      "친한": 4703,
      "사용하고": 4704,
      "도와드리도록": 4705,
      "낮은": 4706,
      "다르게": 4707,
      "개인적으로는": 4708,
      "느끼지": 4709,
      "어떤지": 4710,
      "기본적인": 4711,
      "미국에서": 4712,
      "시작하는": 4713,
      "케이크": 4714,
      "시계": 4715,
      "브라": 4716,
      "오염": 4717,
      "측정": 4718,
      "이해하지": 4719,
      "재생": 4720,
      "적입니다": 4721,
      "종종": 4722,
      "유효": 4723,
      "이것이": 4724,
      "ut": 4725,
      "불구하고": 4726,
      "올림픽": 4727,
      "나랑": 4728,
      "기사의": 4729,
      "시제": 4730,
      "확실히": 4731,
      "났어": 4732,
      "경험이나": 4733,
      "뭔가": 4734,
      "기뻐": 4735,
      "실패": 4736,
      "민주": 4737,
      "당신에게": 4738,
      "력과": 4739,
      "감정은": 4740,
      "포인": 4741,
      "어디에서": 4742,
      "가질": 4743,
      "질환": 4744,
      "딸이": 4745,
      "please": 4746,
      "예정": 4747,
      "개인적으로도": 4748,
      "만들어보세요": 4749,
      "자원": 4750,
      "나라에": 4751,
      "보여주는": 4752,
      "재능": 4753,
      "드려요": 4754,
      "오렌": 4755,
      "AI라서": 4756,
      "지식": 4757,
      "들어서": 4758,
      "항목을": 4759,
      "쓰고": 4760,
      "하신다면": 4761,
      "우스": 4762,
      "주기": 4763,
      "되었으며": 4764,
      "생존": 4765,
      "6년": 4766,
      "캐나다": 4767,
      "귀엽": 4768,
      "충격": 4769,
      "길을": 4770,
      "믿습니다": 4771,
      "얻기": 4772,
      "문맥을": 4773,
      "에너지를": 4774,
      "어야": 4775,
      "라이스": 4776,
      "기준으로": 4777,
      "도서": 4778,
      "생일": 4779,
      "문서를": 4780,
      "질문해주세요": 4781,
      "194": 4782,
      "삶의": 4783,
      "속에서": 4784,
      "이산화": 4785,
      "자세하게": 4786,
      "포함한": 4787,
      "화장": 4788,
      "음악은": 4789,
      "느끼고": 4790,
      "필요하다면": 4791,
      "걱정되": 4792,
      "우울증": 4793,
      "con": 4794,
      "res": 4795,
      "빠른": 4796,
      "없을": 4797,
      "키는": 4798,
      "동태": 4799,
      "맞춰": 4800,
      "현상": 4801,
      "리기": 4802,
      "무언": 4803,
      "형식으로": 4804,
      "that": 4805,
      "있습니까": 4806,
      "아직도": 4807,
      "주말에": 4808,
      "해석을": 4809,
      "시도": 4810,
      "요일에": 4811,
      "트는": 4812,
      "집합": 4813,
      "스의": 4814,
      "이메일": 4815,
      "파티": 4816,
      "최선의": 4817,
      "need": 4818,
      "있음을": 4819,
      "마이": 4820,
      "세상을": 4821,
      "시간은": 4822,
      "필요하다고": 4823,
      "기술이": 4824,
      "세부사항을": 4825,
      "__": 4826,
      "아픈": 4827,
      "관계가": 4828,
      "리안": 4829,
      "사용해": 4830,
      "러닝": 4831,
      "전반": 4832,
      "바나나": 4833,
      "누구야": 4834,
      "최대": 4835,
      "사각형": 4836,
      "셔츠를": 4837,
      "예방": 4838,
      "잠을": 4839,
      "말씀해주실": 4840,
      "장에서": 4841,
      "편리": 4842,
      "약을": 4843,
      "할머니": 4844,
      "my": 4845,
      "1월": 4846,
      "귀찮": 4847,
      "좋아합니다": 4848,
      "orry": 4849,
      "충분히": 4850,
      "곳이": 4851,
      "영화가": 4852,
      "해결할": 4853,
      "클라우드": 4854,
      "ot": 4855,
      "ent": 4856,
      "만큼": 4857,
      "균형을": 4858,
      "3월": 4859,
      "here": 4860,
      "모습을": 4861,
      "표면": 4862,
      "리더": 4863,
      "공을": 4864,
      "제시해주시면": 4865,
      "단순히": 4866,
      "시킬": 4867,
      "거지": 4868,
      "관광": 4869,
      "메뉴": 4870,
      "웠어": 4871,
      "아시아": 4872,
      "공급": 4873,
      "공학": 4874,
      "지원을": 4875,
      "수집": 4876,
      "드리는": 4877,
      "translated": 4878,
      "병원에": 4879,
      "--": 4880,
      "백신": 4881,
      "수도는": 4882,
      "현지": 4883,
      "기도": 4884,
      "분명": 4885,
      "법을": 4886,
      "없다": 4887,
      "시티": 4888,
      "최초": 4889,
      "해결하기": 4890,
      "했어요": 4891,
      "들에": 4892,
      "훌륭한": 4893,
      "II": 4894,
      "붙여": 4895,
      "예산": 4896,
      "포함하는": 4897,
      "일찍": 4898,
      "표를": 4899,
      "슬프시겠어요": 4900,
      "친구의": 4901,
      "갔다": 4902,
      "인을": 4903,
      "실행": 4904,
      "빨간색": 4905,
      "주제든지": 4906,
      "시의": 4907,
      "우주의": 4908,
      "느끼시는군요": 4909,
      "want": 4910,
      "끼리": 4911,
      "촉진": 4912,
      "사회의": 4913,
      "유형을": 4914,
      "1부터": 4915,
      "지어": 4916,
      "비슷한": 4917,
      "앞에": 4918,
      "그들이": 4919,
      "도착": 4920,
      "등장": 4921,
      "뭐가": 4922,
      "개념이": 4923,
      "진화": 4924,
      "하셔": 4925,
      "확인하거나": 4926,
      "리오": 4927,
      "풀다가": 4928,
      "다를": 4929,
      "간주": 4930,
      "사람과": 4931,
      "그런가": 4932,
      "받지": 4933,
      "이게": 4934,
      "슬프시군요": 4935,
      "갑니다": 4936,
      "차량": 4937,
      "주십시오": 4938,
      "하자": 4939,
      "유용한": 4940,
      "건물": 4941,
      "비전": 4942,
      "아는": 4943,
      "프로그램을": 4944,
      "외국": 4945,
      "언어의": 4946,
      "광고": 4947,
      "하긴": 4948,
      "학원": 4949,
      "만들고": 4950,
      "혈액": 4951,
      "텐데": 4952,
      "개념에": 4953,
      "가족들이": 4954,
      "몰라": 4955,
      "청소": 4956,
      "트윗을": 4957,
      "나왔": 4958,
      "방정식을": 4959,
      "ll": 4960,
      "데이터가": 4961,
      "방송": 4962,
      "타는": 4963,
      "훈련": 4964,
      "로마": 4965,
      "묻는": 4966,
      "역시": 4967,
      "연관": 4968,
      "수열": 4969,
      "이탈리안": 4970,
      "롭고": 4971,
      "단어에": 4972,
      "추천해": 4973,
      "도시의": 4974,
      "ur": 4975,
      "드리고": 4976,
      "생기": 4977,
      "시켜": 4978,
      "고유": 4979,
      "한데": 4980,
      "있으셨나요": 4981,
      "필요해요": 4982,
      "요약하세요": 4983,
      "원하신다면": 4984,
      "계시는": 4985,
      "국민": 4986,
      "신가": 4987,
      "문장입니다": 4988,
      "간결하게": 4989,
      "사회에": 4990,
      "말이야": 4991,
      "되었어": 4992,
      "미리": 4993,
      "건강을": 4994,
      "화된": 4995,
      "공기": 4996,
      "변환합니다": 4997,
      "체험": 4998,
      "195": 4999,
      "식당": 5000,
      "앨범": 5001,
      "외부": 5002,
      "알려주시겠어요": 5003,
      "슬로": 5004,
      "인공지능이라": 5005,
      "법률": 5006,
      "초기": 5007,
      "You": 5008,
      "졸업": 5009,
      "나쁜": 5010,
      "인간이": 5011,
      "내부": 5012,
      "제조": 5013,
      "휴식을": 5014,
      "제공되지": 5015,
      "ad": 5016,
      "허용": 5017,
      "사용한": 5018,
      "결혼을": 5019,
      "속상하시군요": 5020,
      "으로써": 5021,
      "영향은": 5022,
      "그때": 5023,
      "단어나": 5024,
      "해가": 5025,
      "알게": 5026,
      "치고": 5027,
      "like": 5028,
      "데에": 5029,
      "그니까": 5030,
      "베이스": 5031,
      "속합니다": 5032,
      "지식을": 5033,
      "체가": 5034,
      "콘텐": 5035,
      "중이": 5036,
      "훨씬": 5037,
      "완벽한": 5038,
      "have": 5039,
      "밤에": 5040,
      "네트": 5041,
      "시대에": 5042,
      "리스트": 5043,
      "일단": 5044,
      "9월": 5045,
      "해양": 5046,
      "과거의": 5047,
      "드시": 5048,
      "좋겠어": 5049,
      "기상청": 5050,
      "않지만": 5051,
      "괜찮아": 5052,
      "00": 5053,
      "ab": 5054,
      "재정": 5055,
      "7월": 5056,
      "시키고": 5057,
      "월드": 5058,
      "강변에": 5059,
      "어떨까요": 5060,
      "1점": 5061,
      "디바": 5062,
      "달성": 5063,
      "블록": 5064,
      "워터": 5065,
      "방법에": 5066,
      "시려면": 5067,
      "성의": 5068,
      "선택합니다": 5069,
      "답변이": 5070,
      "경험이": 5071,
      "설치": 5072,
      "도우미라서": 5073,
      "스가": 5074,
      "적응": 5075,
      "파일": 5076,
      "이용해": 5077,
      "갖춘": 5078,
      "렸습니다": 5079,
      "무엇인가": 5080,
      "미래에": 5081,
      "4월": 5082,
      "명사를": 5083,
      "기온이": 5084,
      "사용될": 5085,
      "의미가": 5086,
      "가격이": 5087,
      "아마도": 5088,
      "달라질": 5089,
      "인은": 5090,
      "8월": 5091,
      "디바이스": 5092,
      "프레": 5093,
      "곳은": 5094,
      "수면": 5095,
      "강의": 5096,
      "여자가": 5097,
      "품질": 5098,
      "브라우": 5099,
      "뛰어난": 5100,
      "부여": 5101,
      "이해하는데": 5102,
      "팀의": 5103,
      "아무것도": 5104,
      "알지": 5105,
      "대화할": 5106,
      "그것도": 5107,
      "모델입니다": 5108,
      "동물의": 5109,
      "래요": 5110,
      "부담": 5111,
      "은행": 5112,
      "데이터나": 5113,
      "휴대폰": 5114,
      "대응": 5115,
      "이것을": 5116,
      "적을": 5117,
      "좋다": 5118,
      "말씀해주시겠어요": 5119,
      "시험을": 5120,
      "높이는": 5121,
      "녹색": 5122,
      "참가": 5123,
      "아래의": 5124,
      "리포": 5125,
      "칩니다": 5126,
      "기다리고": 5127,
      "동사를": 5128,
      "어울": 5129,
      "문장과": 5130,
      "미래를": 5131,
      "해결하는데": 5132,
      "대상": 5133,
      "안내": 5134,
      "말해보세요": 5135,
      "수정합니다": 5136,
      "최종": 5137,
      "내려": 5138,
      "계절": 5139,
      "되기": 5140,
      "래도": 5141,
      "않도록": 5142,
      "기기": 5143,
      "확인해주세요": 5144,
      "결론": 5145,
      "올리": 5146,
      "텍스트는": 5147,
      "자신을": 5148,
      "사용하지": 5149,
      "규모": 5150,
      "무게": 5151,
      "좋아서": 5152,
      "적이지": 5153,
      "번역됩니다": 5154,
      "폭력": 5155,
      "].": 5156,
      "널리": 5157,
      "알려줄": 5158,
      "오랜만에": 5159,
      "확인하시는": 5160,
      "변의": 5161,
      "연락이": 5162,
      "5월": 5163,
      "합은": 5164,
      "못하고": 5165,
      "목록이": 5166,
      "서식": 5167,
      "수단": 5168,
      "고려하여": 5169,
      "궁금하": 5170,
      "명확히": 5171,
      "한글로": 5172,
      "문의해": 5173,
      "단계별": 5174,
      "달러": 5175,
      "아무래도": 5176,
      "뭐라고": 5177,
      "선물": 5178,
      "피곤": 5179,
      "숫자의": 5180,
      "물건을": 5181,
      "ch": 5182,
      "이미지": 5183,
      "삼각형의": 5184,
      "전환": 5185,
      "맞습니다": 5186,
      "강한": 5187,
      "핀란드": 5188,
      "근거": 5189,
      "도의": 5190,
      "조선": 5191,
      "기술은": 5192,
      "Th": 5193,
      "나가": 5194,
      "목록에서": 5195,
      "선수가": 5196,
      "쓰는": 5197,
      "translates": 5198,
      "저렴한": 5199,
      "책은": 5200,
      "얻으시려면": 5201,
      "맨날": 5202,
      "개는": 5203,
      "이면": 5204,
      "그걸": 5205,
      "자전거를": 5206,
      "연기": 5207,
      "알려줘": 5208,
      "책에": 5209,
      "었다": 5210,
      "주셔서": 5211,
      "지방": 5212,
      "힘이": 5213,
      "대해서는": 5214,
      "생성할": 5215,
      "들려": 5216,
      "구두점을": 5217,
      "말하고": 5218,
      "분석하고자": 5219,
      "않을까": 5220,
      "소셜": 5221,
      "소수": 5222,
      "예시를": 5223,
      "리케이션": 5224,
      "오렌지": 5225,
      "6월": 5226,
      "이의": 5227,
      "챙겨": 5228,
      "친구는": 5229,
      "크리": 5230,
      "놀라운": 5231,
      "so": 5232,
      "힘을": 5233,
      "how": 5234,
      "구체적이고": 5235,
      "아파트": 5236,
      "워터맨": 5237,
      "동생이": 5238,
      "농구": 5239,
      "11월": 5240,
      "2월": 5241,
      "아야": 5242,
      "이라": 5243,
      "제곱": 5244,
      "자료를": 5245,
      "진정한": 5246,
      "위치해": 5247,
      "목표는": 5248,
      "그대로": 5249,
      "주제는": 5250,
      "검진": 5251,
      "말은": 5252,
      "장에": 5253,
      "강아지": 5254,
      "보안": 5255,
      "전투": 5256,
      "발생하는": 5257,
      "그녀가": 5258,
      "12월": 5259,
      "관을": 5260,
      "무엇이었나요": 5261,
      "어땠나요": 5262,
      "출신": 5263,
      "받았습니다": 5264,
      "아름다움": 5265,
      "검토해": 5266,
      "신기": 5267,
      "나누고": 5268,
      "공격": 5269,
      "단계별로": 5270,
      "마음을": 5271,
      "would": 5272,
      "션을": 5273,
      "대한민": 5274,
      "fe": 5275,
      "원하는지": 5276,
      "머신": 5277,
      "알려진": 5278,
      "제시하세요": 5279,
      "생활을": 5280,
      "더니": 5281,
      "안타": 5282,
      "그를": 5283,
      "소득": 5284,
      "전달하는": 5285,
      "드시는군요": 5286,
      "암시": 5287,
      "제안을": 5288,
      "고등학교": 5289,
      "며칠": 5290,
      "오후": 5291,
      "참인지": 5292,
      "어디야": 5293,
      "유효한": 5294,
      "ii": 5295,
      "건을": 5296,
      "일상적인": 5297,
      "죄책감이": 5298,
      "스카": 5299,
      "22": 5300,
      "값은": 5301,
      "알림": 5302,
      "예전": 5303,
      "항공": 5304,
      "고민하고": 5305,
      "자식들이": 5306,
      "출시": 5307,
      "아이스크": 5308,
      "만으로는": 5309,
      "나셨군요": 5310,
      "사용합니다": 5311,
      "분류해주세요": 5312,
      "수상": 5313,
      "하시오": 5314,
      "공유해주시면": 5315,
      "고급": 5316,
      "범죄": 5317,
      "필요가": 5318,
      "나눌": 5319,
      "모임": 5320,
      "걷고": 5321,
      "제공하세요": 5322,
      "의미는": 5323,
      "대화의": 5324,
      "귀여": 5325,
      "조절": 5326,
      "기억에": 5327,
      "분야의": 5328,
      "동작": 5329,
      "최근의": 5330,
      "컨텍스트": 5331,
      "특성을": 5332,
      "알겠습니다": 5333,
      "이와": 5334,
      "언제든": 5335,
      "된다고": 5336,
      "시설": 5337,
      "절대": 5338,
      "플라": 5339,
      "니가": 5340,
      "소설의": 5341,
      "조는": 5342,
      "자와": 5343,
      "있으세요": 5344,
      "자격": 5345,
      "자연의": 5346,
      "취향": 5347,
      "아르": 5348,
      "정답을": 5349,
      "합리적인": 5350,
      "변화가": 5351,
      "21": 5352,
      "bil": 5353,
      "뮤니": 5354,
      "바닥": 5355,
      "커뮤니": 5356,
      "필요할": 5357,
      "때까지": 5358,
      "방식": 5359,
      "흡수": 5360,
      "문자를": 5361,
      "행복한": 5362,
      "인물": 5363,
      "되는지": 5364,
      "메시지": 5365,
      "찾습니다": 5366,
      "편의": 5367,
      "하셨겠어요": 5368,
      "경을": 5369,
      "복합": 5370,
      "수학적": 5371,
      "선택하여": 5372,
      "직업을": 5373,
      "과제를": 5374,
      "측면에서": 5375,
      "Fit": 5376,
      "Fitz": 5377,
      "뜻을": 5378,
      "최적": 5379,
      "나라의": 5380,
      "주변에": 5381,
      "심각": 5382,
      "죽음": 5383,
      "햇빛": 5384,
      "헤드라인을": 5385,
      "오면": 5386,
      "없는데": 5387,
      "묻고": 5388,
      "단어와": 5389,
      "프라이": 5390,
      "했다": 5391,
      "요소는": 5392,
      "였나요": 5393,
      "좋으시겠어요": 5394,
      "바이러": 5395,
      "사의": 5396,
      "채소": 5397,
      "초점을": 5398,
      "관심을": 5399,
      "```": 5400,
      "킵니다": 5401,
      "문이": 5402,
      "lies": 5403,
      "billies": 5404,
      "Fitzbillies": 5405,
      "기호": 5406,
      "배출": 5407,
      "선거": 5408,
      "빈칸": 5409,
      "살펴": 5410,
      "물리적": 5411,
      "동물을": 5412,
      "팀은": 5413,
      "극복": 5414,
      "파괴": 5415,
      "민주주의": 5416,
      "제공하겠습니다": 5417,
      "검색을": 5418,
      "gh": 5419,
      "보험": 5420,
      "영역": 5421,
      "분위기를": 5422,
      "um": 5423,
      "겁니다": 5424,
      "출근": 5425,
      "내에": 5426,
      "치가": 5427,
      "표준": 5428,
      "슬픔": 5429,
      "쓰기": 5430,
      "없으면": 5431,
      "효율적인": 5432,
      "파이썬": 5433,
      "않기": 5434,
      "지니": 5435,
      "보내주시면": 5436,
      "방정식": 5437,
      "It": 5438,
      "함으로써": 5439,
      "yth": 5440,
      "기차": 5441,
      "하셨나요": 5442,
      "나타내": 5443,
      "의미입니다": 5444,
      "수행할": 5445,
      "우울해": 5446,
      "적이라고": 5447,
      "검은색": 5448,
      "괜찮습니다": 5449,
      "높습니다": 5450,
      "발음을": 5451,
      "다니는": 5452,
      "),": 5453,
      "감각": 5454,
      "겠지": 5455,
      "아이를": 5456,
      "던데": 5457,
      "가게에": 5458,
      "대단": 5459,
      "소유": 5460,
      "표현이": 5461,
      "도서관": 5462,
      "이산화탄소": 5463,
      "차지": 5464,
      "작성하십시오": 5465,
      "보드": 5466,
      "지진": 5467,
      "보호를": 5468,
      "야외": 5469,
      "웅웅": 5470,
      "캠브": 5471,
      "했지만": 5472,
      "건지": 5473,
      "확장": 5474,
      "간단히": 5475,
      "장난감": 5476,
      "지역에서": 5477,
      "제안하세요": 5478,
      "발전을": 5479,
      "어릴": 5480,
      "감지": 5481,
      "번역은": 5482,
      "되어서": 5483,
      "옆에": 5484,
      "레슬": 5485,
      "선택한": 5486,
      "구문을": 5487,
      "미친": 5488,
      "애플리케이션": 5489,
      "제시된": 5490,
      "자리를": 5491,
      "퇴근": 5492,
      "미칠까요": 5493,
      "주신다면": 5494,
      "반드시": 5495,
      "out": 5496,
      "겠네": 5497,
      "늦게": 5498,
      "실시간으로": 5499,
      "달에": 5500,
      "계산하세요": 5501,
      "셨어요": 5502,
      "설명합니다": 5503,
      "네트워크": 5504,
      "노란색": 5505,
      "ers": 5506,
      "동물은": 5507,
      "공원에서": 5508,
      "근육": 5509,
      "파일을": 5510,
      "지금까지": 5511,
      "원이": 5512,
      "클럽": 5513,
      "인터넷에서": 5514,
      "시코": 5515,
      "행동에": 5516,
      "2차": 5517,
      "발생한": 5518,
      "당근": 5519,
      "선을": 5520,
      "아메": 5521,
      "활동에": 5522,
      "선생님이": 5523,
      "sorry": 5524,
      "었을": 5525,
      "말하기": 5526,
      "심이": 5527,
      "섭취": 5528,
      "장기": 5529,
      "합격": 5530,
      "상관없습니다": 5531,
      "언급된": 5532,
      "데뷔": 5533,
      "있나": 5534,
      "숫자는": 5535,
      "높음": 5536,
      "배운": 5537,
      "제주": 5538,
      "너가": 5539,
      "사무": 5540,
      "도심": 5541,
      "사라": 5542,
      "그러니까": 5543,
      "구절을": 5544,
      "레오": 5545,
      "정의를": 5546,
      "러운": 5547,
      "간단하고": 5548,
      "카메라": 5549,
      "불가능": 5550,
      "두려워": 5551,
      "관찰": 5552,
      "노트": 5553,
      "모험": 5554,
      "소스": 5555,
      "싶지": 5556,
      "하니까": 5557,
      "계산합니다": 5558,
      "목적은": 5559,
      "걸까": 5560,
      "기원": 5561,
      "답변할": 5562,
      "미안해": 5563,
      "못했습니다": 5564,
      "was": 5565,
      "로그": 5566,
      "느끼는": 5567,
      "경찰": 5568,
      "될까": 5569,
      "확인합니다": 5570,
      "입력이": 5571,
      "주민": 5572,
      "받아서": 5573,
      "멕시코": 5574,
      "Le": 5575,
      "원의": 5576,
      "일하는": 5577,
      "인간은": 5578,
      "접근하거나": 5579,
      "고가": 5580,
      "력은": 5581,
      "만날": 5582,
      "성능": 5583,
      "어디로": 5584,
      "겠군요": 5585,
      "과의": 5586,
      "마크": 5587,
      "그럼요": 5588,
      "느낌을": 5589,
      "갈색": 5590,
      "스러우시군요": 5591,
      "완벽하게": 5592,
      "독일어": 5593,
      "리와": 5594,
      "재구성": 5595,
      "따로": 5596,
      "정이": 5597,
      "분석하는": 5598,
      "날이": 5599,
      "도입": 5600,
      "해볼": 5601,
      "가치가": 5602,
      "클래": 5603,
      "아티": 5604,
      "원칙": 5605,
      "하루에": 5606,
      "이용하여": 5607,
      "신체적": 5608,
      "것만": 5609,
      "음악의": 5610,
      "제품에": 5611,
      "관계에": 5612,
      "메모": 5613,
      "20파운드": 5614,
      "오류가": 5615,
      "묘사하는": 5616,
      "얻으려면": 5617,
      "일관": 5618,
      "피아": 5619,
      "구성되어": 5620,
      "몰랐": 5621,
      "하다는": 5622,
      "생각보다": 5623,
      "필요한가요": 5624,
      "대답할": 5625,
      "기념": 5626,
      "합니까": 5627,
      "순서대로": 5628,
      "바일": 5629,
      "분석하여": 5630,
      "들었어": 5631,
      "대륙": 5632,
      "르지": 5633,
      "어가": 5634,
      "영어로는": 5635,
      "특징을": 5636,
      "논리적": 5637,
      "눈이": 5638,
      "상식에": 5639,
      "중이야": 5640,
      "변화에": 5641,
      "We": 5642,
      "드디어": 5643,
      "수술": 5644,
      "곳을": 5645,
      "권한": 5646,
      "동네": 5647,
      "등급": 5648,
      "학업": 5649,
      "미칩니다": 5650,
      "상담": 5651,
      "이거": 5652,
      "확실하게": 5653,
      "이익을": 5654,
      "추는": 5655,
      "간단하게": 5656,
      "새가": 5657,
      "생긴": 5658,
      "나이를": 5659,
      "났습니다": 5660,
      "표로": 5661,
      "나와서": 5662,
      "모순": 5663,
      "생각하는": 5664,
      "변화는": 5665,
      "남자친구가": 5666,
      "갖고": 5667,
      "구글": 5668,
      "실수를": 5669,
      "짜증이": 5670,
      "거짓인지": 5671,
      "보냈": 5672,
      "제공해야": 5673,
      "필요에": 5674,
      "작성된": 5675,
      "ure": 5676,
      "현재로": 5677,
      "부끄러": 5678,
      "고를": 5679,
      "표현하면": 5680,
      "계속해서": 5681,
      "대박": 5682,
      "보이는": 5683,
      "부모님께": 5684,
      "일어난": 5685,
      "비용을": 5686,
      "now": 5687,
      "성공을": 5688,
      "방출": 5689,
      "싸우": 5690,
      "가깝": 5691,
      "도달": 5692,
      "않아요": 5693,
      "그렇습니다": 5694,
      "반가": 5695,
      "산술": 5696,
      "자들이": 5697,
      "시나리오": 5698,
      "공통": 5699,
      "때가": 5700,
      "프로젝트의": 5701,
      "3점": 5702,
      "캘리포": 5703,
      "일본의": 5704,
      "정도로": 5705,
      "통과": 5706,
      "her": 5707,
      "보호하기": 5708,
      "브라우저": 5709,
      "님의": 5710,
      "갔는데": 5711,
      "데이터베이스": 5712,
      "찾아드릴": 5713,
      "나면": 5714,
      "않음": 5715,
      "왔습니다": 5716,
      "포함됩니다": 5717,
      "전략을": 5718,
      "가격을": 5719,
      "결정합니다": 5720,
      "괜찮은": 5721,
      "방식을": 5722,
      "발생할": 5723,
      "권장드립니다": 5724,
      "수에": 5725,
      "식품": 5726,
      "포르": 5727,
      "사회에서": 5728,
      "언니는": 5729,
      "5가지": 5730,
      "도덕적": 5731,
      "슬로건을": 5732,
      "Jo": 5733,
      "갔습니다": 5734,
      "영향에": 5735,
      "가격은": 5736,
      "루마": 5737,
      "브라질": 5738,
      "발을": 5739,
      "생겼어": 5740,
      "He": 5741,
      "가능성을": 5742,
      "장소에": 5743,
      "카테고리": 5744,
      "주면": 5745,
      "지원하지": 5746,
      "초래": 5747,
      "그림을": 5748,
      "위원": 5749,
      "개봉": 5750,
      "눈물이": 5751,
      "맞지": 5752,
      "조언이": 5753,
      "기쁘시겠어요": 5754,
      "보니까": 5755,
      "커리": 5756,
      "번역하기": 5757,
      "하지는": 5758,
      "가족이": 5759,
      "위치하고": 5760,
      "풍부한": 5761,
      "최초의": 5762,
      "있는가": 5763,
      "분에": 5764,
      "상황이나": 5765,
      "아파서": 5766,
      "5개의": 5767,
      "나머": 5768,
      "들도": 5769,
      "수정하세요": 5770,
      "종이": 5771,
      "리뷰는": 5772,
      "ation": 5773,
      "요소가": 5774,
      "관적인": 5775,
      "삶에": 5776,
      "문장들을": 5777,
      "오래된": 5778,
      "먹으면": 5779,
      "무한": 5780,
      "비디오": 5781,
      "노래를": 5782,
      "이므로": 5783,
      "납니다": 5784,
      "원자": 5785,
      "하우스": 5786,
      "않았어": 5787,
      "형용사를": 5788,
      "갔어": 5789,
      "구름": 5790,
      "보거나": 5791,
      "선수의": 5792,
      "량이": 5793,
      "불러": 5794,
      "앞에서": 5795,
      "토론": 5796,
      "유전자": 5797,
      "Qw": 5798,
      "전반적인": 5799,
      "고생": 5800,
      "다이어": 5801,
      "되도록": 5802,
      "버거": 5803,
      "효율적으로": 5804,
      "Qwen": 5805,
      "예약": 5806,
      "월급": 5807,
      "이슈": 5808,
      "이자": 5809,
      "집안": 5810,
      "현악기인지": 5811,
      "단계를": 5812,
      "어려울": 5813,
      "작업에": 5814,
      "산은": 5815,
      "구합니다": 5816,
      "중앙": 5817,
      "내일의": 5818,
      "구하세요": 5819,
      "되었는지": 5820,
      "나올": 5821,
      "논문": 5822,
      "그렇다면": 5823,
      "어린이": 5824,
      "로스": 5825,
      "히는": 5826,
      "정보와": 5827,
      "확인하시": 5828,
      "GP": 5829,
      "뿐만": 5830,
      "순서로": 5831,
      "연령": 5832,
      "했으며": 5833,
      "193": 5834,
      "일본어": 5835,
      "방금": 5836,
      "체크": 5837,
      "포도": 5838,
      "ange": 5839,
      "문화와": 5840,
      "보여줍니다": 5841,
      "것인가": 5842,
      "중인데": 5843,
      "참석": 5844,
      "다음의": 5845,
      "제품의": 5846,
      "생활에": 5847,
      "수익": 5848,
      "집은": 5849,
      "매력적인": 5850,
      "페이지": 5851,
      "비아": 5852,
      "사례": 5853,
      "사에": 5854,
      "아하": 5855,
      "키워드가": 5856,
      "담배": 5857,
      "어조": 5858,
      "조지": 5859,
      "종일": 5860,
      "이상한": 5861,
      "경제적으로": 5862,
      "싶어서": 5863,
      "추가적인": 5864,
      "공연": 5865,
      "당황스러워": 5866,
      "상대방": 5867,
      "넘어": 5868,
      "노동": 5869,
      "단백": 5870,
      "기온은": 5871,
      "팀이": 5872,
      "이야기의": 5873,
      "밖에서": 5874,
      "비싼": 5875,
      "추억": 5876,
      "스럽고": 5877,
      "의사소통": 5878,
      "정체": 5879,
      "무언가를": 5880,
      "오늘도": 5881,
      "것이다": 5882,
      "생성해주세요": 5883,
      "경험에": 5884,
      "NA": 5885,
      "체계": 5886,
      "일러": 5887,
      "완전한": 5888,
      "키워드": 5889,
      "리뷰의": 5890,
      "스키": 5891,
      "카드": 5892,
      "보내고": 5893,
      "세계의": 5894,
      "량을": 5895,
      "영어에서": 5896,
      "공공": 5897,
      "대전": 5898,
      "추출합니다": 5899,
      "뜻인가요": 5900,
      "미술": 5901,
      "온난": 5902,
      "있는지에": 5903,
      "구할": 5904,
      "서울에서": 5905,
      "노는": 5906,
      "미디": 5907,
      "도와주세요": 5908,
      "궁금해": 5909,
      "입을": 5910,
      "받아들": 5911,
      "맞춤법": 5912,
      "교사": 5913,
      "음료": 5914,
      "제공하여": 5915,
      "환경에서": 5916,
      "사귀": 5917,
      "일주": 5918,
      "환영": 5919,
      "주시거나": 5920,
      "저녁에": 5921,
      "논문의": 5922,
      "자에게": 5923,
      "심한": 5924,
      "살이": 5925,
      "영어를": 5926,
      "사이에서": 5927,
      "종류를": 5928,
      "문화를": 5929,
      "시청": 5930,
      "해줘": 5931,
      "마지막으로": 5932,
      "보도록": 5933,
      "하나입니다": 5934,
      "보내는": 5935,
      "유사한": 5936,
      "길이가": 5937,
      "날에": 5938,
      "바바": 5939,
      "아이에게": 5940,
      "?]": 5941,
      "답답": 5942,
      "스턴": 5943,
      "왔는데": 5944,
      "차순으로": 5945,
      "결합하여": 5946,
      "깊이": 5947,
      "일하고": 5948,
      "중립": 5949,
      "놀이": 5950,
      "타이": 5951,
      "AI로": 5952,
      "배가": 5953,
      "분해": 5954,
      "요청이": 5955,
      "글로": 5956,
      "유기": 5957,
      "체로": 5958,
      "협력": 5959,
      "제공한": 5960,
      "보러": 5961,
      "영상": 5962,
      "제조업": 5963,
      "캠브리지": 5964,
      "곳입니다": 5965,
      "군사": 5966,
      "책이": 5967,
      "작곡": 5968,
      "토마": 5969,
      "기온을": 5970,
      "pple": 5971,
      "기술과": 5972,
      "미터": 5973,
      "있으시군요": 5974,
      "hn": 5975,
      "만나는": 5976,
      "트가": 5977,
      "und": 5978,
      "있었는데": 5979,
      "John": 5980,
      "고대": 5981,
      "비판": 5982,
      "좋을까요": 5983,
      "지내세요": 5984,
      "평소": 5985,
      "임을": 5986,
      "주제와": 5987,
      "정부의": 5988,
      "줄을": 5989,
      "아내와": 5990,
      "가이": 5991,
      "미적": 5992,
      "먹으": 5993,
      "있었던": 5994,
      "작업의": 5995,
      "유지하면서": 5996,
      "초조": 5997,
      "었어요": 5998,
      "주택": 5999,
      "트로": 6000,
      "시간과": 6001,
      "노력이": 6002,
      "주문": 6003,
      "시작했습니다": 6004,
      "무서워": 6005,
      "게시": 6006,
      "cm": 6007,
      "좋으시군요": 6008,
      "남는": 6009,
      "속하는": 6010,
      "스케이": 6011,
      "경우가": 6012,
      "수정해주세요": 6013,
      "없다는": 6014,
      "공개": 6015,
      "느꼈": 6016,
      "요약해주세요": 6017,
      "관계는": 6018,
      "de": 6019,
      "개인정보": 6020,
      "상상해": 6021,
      "그린": 6022,
      "네이": 6023,
      "품목": 6024,
      "먹기": 6025,
      "한국말로": 6026,
      "조용": 6027,
      "ython": 6028,
      "가스": 6029,
      "증을": 6030,
      "에세": 6031,
      "위해서": 6032,
      "한국어와": 6033,
      "취업이": 6034,
      "기기의": 6035,
      "당뇨": 6036,
      "리그": 6037,
      "True": 6038,
      "비해": 6039,
      "인과": 6040,
      "국가를": 6041,
      "대략": 6042,
      "시스템을": 6043,
      "전통적인": 6044,
      "평생": 6045,
      "가방": 6046,
      "기반한": 6047,
      "분위기": 6048,
      "번호는": 6049,
      "5개": 6050,
      "분을": 6051,
      "스틱": 6052,
      "올리브": 6053,
      "프라이버": 6054,
      "기존": 6055,
      "네덜": 6056,
      "액세스": 6057,
      "느낌이": 6058,
      "회사를": 6059,
      "추천을": 6060,
      "분야에": 6061,
      "불안하시군요": 6062,
      "각각의": 6063,
      "나지": 6064,
      "시내": 6065,
      "기하학": 6066,
      "거든": 6067,
      "역을": 6068,
      "그러므로": 6069,
      "검색하거나": 6070,
      "당히": 6071,
      "출력하세요": 6072,
      "2x": 6073,
      "달려": 6074,
      "질이": 6075,
      "텔레": 6076,
      "나라에서": 6077,
      "작품을": 6078,
      "거에요": 6079,
      "부에": 6080,
      "잠시": 6081,
      "번역해줘": 6082,
      "생성된": 6083,
      "로를": 6084,
      "로부터": 6085,
      "중입니다": 6086,
      "치즈": 6087,
      "책임을": 6088,
      "루마니아": 6089,
      "쉼표로": 6090,
      "가족과": 6091,
      "추가하세요": 6092,
      "네덜란드": 6093,
      "23": 6094,
      "나아": 6095,
      "우시겠어요": 6096,
      "무엇이며": 6097,
      "현재로서는": 6098,
      "저번에": 6099,
      "쳐서": 6100,
      "one": 6101,
      "짜리": 6102,
      "번호를": 6103,
      "Me": 6104,
      "농업": 6105,
      "소는": 6106,
      "노트북": 6107,
      "내고": 6108,
      "즐겁": 6109,
      "차이가": 6110,
      "가상": 6111,
      "로컬": 6112,
      "지각": 6113,
      "권리를": 6114,
      "푸는": 6115,
      "반가워요": 6116,
      "정상": 6117,
      "모르는": 6118,
      "대를": 6119,
      "색깔": 6120,
      "이하": 6121,
      "취직": 6122,
      "방정식의": 6123,
      "남은": 6124,
      "알바": 6125,
      "나노": 6126,
      "높아": 6127,
      "런던": 6128,
      "작성하는": 6129,
      "추정": 6130,
      "능력은": 6131,
      "기억이": 6132,
      "하이쿠": 6133,
      "지속적으로": 6134,
      "av": 6135,
      "정원": 6136,
      "금액": 6137,
      "돕겠습니다": 6138,
      "있잖아": 6139,
      "천만에": 6140,
      "천만에요": 6141,
      "go": 6142,
      "튜브": 6143,
      "여유": 6144,
      "필요하면": 6145,
      "그것에": 6146,
      "성별": 6147,
      "계시는지": 6148,
      "않다고": 6149,
      "가지는": 6150,
      "나시는군요": 6151,
      "세기": 6152,
      "시대의": 6153,
      "단순한": 6154,
      "바람이": 6155,
      "인류의": 6156,
      "계약": 6157,
      "시민": 6158,
      "숫자가": 6159,
      "근무": 6160,
      "나라는": 6161,
      "방안을": 6162,
      "언어에": 6163,
      "생활이": 6164,
      "마스크": 6165,
      "읽은": 6166,
      "마그": 6167,
      "아메리카": 6168,
      "저도": 6169,
      "크고": 6170,
      "조언이나": 6171,
      "인터넷을": 6172,
      "는다": 6173,
      "비유": 6174,
      "하다가": 6175,
      "차는": 6176,
      "형으로": 6177,
      "공유하는": 6178,
      "것인가요": 6179,
      "계신": 6180,
      "아냐": 6181,
      "양의": 6182,
      "오지": 6183,
      "지켜": 6184,
      "나열해주세요": 6185,
      "아티스트": 6186,
      "누락": 6187,
      "온도": 6188,
      "스트라": 6189,
      "하루가": 6190,
      "괴로우시군요": 6191,
      "주가": 6192,
      "아버지": 6193,
      "쓰레": 6194,
      "열정": 6195,
      "마법": 6196,
      "스파": 6197,
      "내리는": 6198,
      "어떡": 6199,
      "신이": 6200,
      "레스토랑의": 6201,
      "나빠": 6202,
      "읽을": 6203,
      "그래야": 6204,
      "그리스": 6205,
      "승진": 6206,
      "무엇에": 6207,
      "코드의": 6208,
      "보이지": 6209,
      "수동태": 6210,
      "쿼리를": 6211,
      "가자": 6212,
      "2023년": 6213,
      "사각형의": 6214,
      "food": 6215,
      "공화": 6216,
      "유지하고": 6217,
      "모델을": 6218,
      "생겨서": 6219,
      "배신": 6220,
      "올해": 6221,
      "중한": 6222,
      "설명하고": 6223,
      "에너지는": 6224,
      "물고기": 6225,
      "밝은": 6226,
      "핸드": 6227,
      "구성된": 6228,
      "여자친구가": 6229,
      "괴로워": 6230,
      "밴드": 6231,
      "국가는": 6232,
      "나누어": 6233,
      "집중하고": 6234,
      "대출": 6235,
      "못할": 6236,
      "미는": 6237,
      "방지": 6238,
      "샀어": 6239,
      "소식을": 6240,
      "실을": 6241,
      "쓰세요": 6242,
      "걱정하지": 6243,
      "아닐": 6244,
      "하러": 6245,
      "학생이": 6246,
      "낮음": 6247,
      "당하는": 6248,
      "인생은": 6249,
      "달리": 6250,
      "행동은": 6251,
      "학생들이": 6252,
      "기업의": 6253,
      "솔루": 6254,
      "의문": 6255,
      "합시다": 6256,
      "알려주시지": 6257,
      "이제는": 6258,
      "사랑하는": 6259,
      "당황스러우": 6260,
      "렸을": 6261,
      "통한": 6262,
      "서로를": 6263,
      "공부하고": 6264,
      "바꾸세요": 6265,
      "공정": 6266,
      "제보": 6267,
      "집이": 6268,
      "알리멘": 6269,
      "장소를": 6270,
      "르기": 6271,
      "소리가": 6272,
      "제는": 6273,
      "캘리포니아": 6274,
      "윤리": 6275,
      "일인지": 6276,
      "짧게": 6277,
      "상처를": 6278,
      "거운": 6279,
      "등등": 6280,
      "애니": 6281,
      "산이": 6282,
      "천천": 6283,
      "천천히": 6284,
      "관리를": 6285,
      "예전에": 6286,
      "의자": 6287,
      "해당합니다": 6288,
      "학습을": 6289,
      "이루어진": 6290,
      "무지": 6291,
      "출연": 6292,
      "코끼리": 6293,
      "바위": 6294,
      "쓰여": 6295,
      "되는가": 6296,
      "ul": 6297,
      "사랑은": 6298,
      "걸어": 6299,
      "대에": 6300,
      "해보고": 6301,
      "철학": 6302,
      "카운": 6303,
      "지속적인": 6304,
      "설립되었습니다": 6305,
      "꾸준": 6306,
      "러워": 6307,
      "선택할": 6308,
      "구입": 6309,
      "글의": 6310,
      "멀리": 6311,
      "수한": 6312,
      "변환하세요": 6313,
      "텔레비전": 6314,
      "ct": 6315,
      "경기를": 6316,
      "스케": 6317,
      "증명": 6318,
      "보호하는": 6319,
      "연합": 6320,
      "무척": 6321,
      "고유한": 6322,
      "높이": 6323,
      "불만": 6324,
      "잔디": 6325,
      "저를": 6326,
      "해결하고": 6327,
      "도와드리게": 6328,
      "행동이": 6329,
      "직장을": 6330,
      "인구는": 6331,
      "습관": 6332,
      "어버": 6333,
      "설명해드릴": 6334,
      "형태의": 6335,
      "원인은": 6336,
      "주를": 6337,
      "증상": 6338,
      "칭찬": 6339,
      "크기": 6340,
      "하시는지": 6341,
      "의견이": 6342,
      "테니스": 6343,
      "사고를": 6344,
      "어쩌": 6345,
      "저희": 6346,
      "사람에": 6347,
      "돕고": 6348,
      "유발": 6349,
      "자로": 6350,
      "단위로": 6351,
      "대수": 6352,
      "눈에": 6353,
      "다리": 6354,
      "표현하고": 6355,
      "남편과": 6356,
      "대학에": 6357,
      "알리바바": 6358,
      "기울": 6359,
      "벗어": 6360,
      "의견은": 6361,
      "최신의": 6362,
      "수행하는": 6363,
      "초콜": 6364,
      "안타깝": 6365,
      "초콜릿": 6366,
      "부동": 6367,
      "규칙을": 6368,
      "고래": 6369,
      "나보다": 6370,
      "서비스에": 6371,
      "노력하고": 6372,
      "에너지가": 6373,
      "럽게": 6374,
      "체코": 6375,
      "표기": 6376,
      "손을": 6377,
      "하므로": 6378,
      "공식적인": 6379,
      "고통": 6380,
      "뒤에": 6381,
      "받침": 6382,
      "변동": 6383,
      "그런지": 6384,
      "보고서": 6385,
      "결과에": 6386,
      "태어난": 6387,
      "사실인가요": 6388,
      "편리하게": 6389,
      "27": 6390,
      "아들": 6391,
      "채널": 6392,
      "포인트": 6393,
      "것들이": 6394,
      "듣는": 6395,
      "읽기": 6396,
      "금이": 6397,
      "속해": 6398,
      "실에": 6399,
      "사용하면": 6400,
      "사건에": 6401,
      "도시는": 6402,
      "본질": 6403,
      "이란": 6404,
      "질문입니다": 6405,
      "있었는지": 6406,
      "수정해": 6407,
      "대화가": 6408,
      "갑작": 6409,
      "공항": 6410,
      "배울": 6411,
      "편이야": 6412,
      "동물이": 6413,
      "사항에": 6414,
      "',": 6415,
      "재료를": 6416,
      "선택하겠습니다": 6417,
      "극적으로": 6418,
      "길이": 6419,
      "싱턴": 6420,
      "부드러운": 6421,
      "읽는": 6422,
      "으로부터": 6423,
      "하루는": 6424,
      "타악기인지": 6425,
      "내용이나": 6426,
      "받아야": 6427,
      "안전한": 6428,
      "뒷받침": 6429,
      "선언": 6430,
      "한국어에서": 6431,
      "장르의": 6432,
      "동기": 6433,
      "호를": 6434,
      "나왔어": 6435,
      "보시": 6436,
      "외의": 6437,
      "예상되는": 6438,
      "링크": 6439,
      "해봤어": 6440,
      "회사가": 6441,
      "노력을": 6442,
      "시스템의": 6443,
      "동일": 6444,
      "심하게": 6445,
      "포기": 6446,
      "하되": 6447,
      "호주": 6448,
      "둘러": 6449,
      "선택을": 6450,
      "부분에서": 6451,
      "농담을": 6452,
      "수와": 6453,
      "자랑": 6454,
      "20년": 6455,
      "언니가": 6456,
      "사실에": 6457,
      "저항": 6458,
      "ell": 6459,
      "반려": 6460,
      "번역해야": 6461,
      "end": 6462,
      "레시피를": 6463,
      "봐도": 6464,
      "재활용": 6465,
      "코미디": 6466,
      "향이": 6467,
      "추가합니다": 6468,
      "맞는지": 6469,
      "작성할": 6470,
      "확인해야": 6471,
      "분의": 6472,
      "영감을": 6473,
      "생성하는": 6474,
      "회사는": 6475,
      "동의어를": 6476,
      "남자와": 6477,
      "처음으로": 6478,
      "돕는데": 6479,
      "메달": 6480,
      "이해했습니다": 6481,
      "옵션은": 6482,
      "일도": 6483,
      "현상을": 6484,
      "휴가": 6485,
      "친구들은": 6486,
      "로크": 6487,
      "슈퍼": 6488,
      "애들이": 6489,
      "현악기": 6490,
      "구성합니다": 6491,
      "쪽으로": 6492,
      "중요성을": 6493,
      "will": 6494,
      "반환": 6495,
      "안에서": 6496,
      "좋은데": 6497,
      "제목은": 6498,
      "28": 6499,
      "심각한": 6500,
      "SE": 6501,
      "없네요": 6502,
      "좋았": 6503,
      "할인": 6504,
      "연습을": 6505,
      "선이": 6506,
      "선수는": 6507,
      "알아야": 6508,
      "마자": 6509,
      "보지": 6510,
      "삭제": 6511,
      "워싱턴": 6512,
      "문법을": 6513,
      "것들을": 6514,
      "되는데": 6515,
      "즐기는": 6516,
      "추측": 6517,
      "그럼에도": 6518,
      "혼란스러워": 6519,
      "시인지": 6520,
      "알렉": 6521,
      "이전에": 6522,
      "참이라고": 6523,
      "프를": 6524,
      "흔히": 6525,
      "5살": 6526,
      "조정": 6527,
      "있었다": 6528,
      "판단할": 6529,
      "통합": 6530,
      "한계": 6531,
      "LE": 6532,
      "권을": 6533,
      "놀러": 6534,
      "위협": 6535,
      "조화": 6536,
      "찾는데": 6537,
      "입력을": 6538,
      "귀엽다": 6539,
      "모바일": 6540,
      "산책을": 6541,
      "없네": 6542,
      "좋다고": 6543,
      "체는": 6544,
      "This": 6545,
      "조치를": 6546,
      "파리": 6547,
      "계획하고": 6548,
      "아닌지": 6549,
      "작품의": 6550,
      "Could": 6551,
      "ain": 6552,
      "역사를": 6553,
      "응답을": 6554,
      "제시해주세요": 6555,
      "리뷰가": 6556,
      "없으므로": 6557,
      "부모님의": 6558,
      "인구가": 6559,
      "4단계": 6560,
      "상사가": 6561,
      "좋게": 6562,
      "아이스크림": 6563,
      "what": 6564,
      "좋네요": 6565,
      "키우": 6566,
      "부모님은": 6567,
      "알리멘툼": 6568,
      "간접": 6569,
      "그동안": 6570,
      "자들은": 6571,
      "존은": 6572,
      "종의": 6573,
      "걱정이시군요": 6574,
      "In": 6575,
      "us": 6576,
      "상사": 6577,
      "스위": 6578,
      "대화하는": 6579,
      "스크립": 6580,
      "나게": 6581,
      "보려고": 6582,
      "윌리": 6583,
      "친구들에게": 6584,
      "다니고": 6585,
      "비용이": 6586,
      "건가": 6587,
      "컨텍스트에": 6588,
      "트의": 6589,
      "걱정돼": 6590,
      "고요": 6591,
      "신선": 6592,
      "함축": 6593,
      "질문의": 6594,
      "렌치": 6595,
      "키우는": 6596,
      "해외": 6597,
      "휴식": 6598,
      "명확하지": 6599,
      "수수": 6600,
      "토끼": 6601,
      "하기로": 6602,
      "되시는군요": 6603,
      "분노": 6604,
      "식물의": 6605,
      "어렸을": 6606,
      "오호": 6607,
      "산의": 6608,
      "원합니다": 6609,
      "치매": 6610,
      "수정하여": 6611,
      "느껴져": 6612,
      "고기": 6613,
      "구는": 6614,
      "답하는": 6615,
      "경기에서": 6616,
      "나쁘": 6617,
      "대인": 6618,
      "차이를": 6619,
      "인공지능의": 6620,
      "미만의": 6621,
      "hi": 6622,
      "하나도": 6623,
      "cont": 6624,
      "com": 6625,
      "어의": 6626,
      "제임": 6627,
      "야생": 6628,
      "있더라": 6629,
      "캠핑": 6630,
      "사실이": 6631,
      "역사와": 6632,
      "검사": 6633,
      "번역합니다": 6634,
      "질문이든지": 6635,
      "드레스": 6636,
      "로맨": 6637,
      "마치": 6638,
      "보네요": 6639,
      "happ": 6640,
      "차이점은": 6641,
      "pon": 6642,
      "멸종": 6643,
      "율을": 6644,
      "만나서": 6645,
      "필수적인": 6646,
      "게임은": 6647,
      "선호하는": 6648,
      "랫동안": 6649,
      "오랫동안": 6650,
      "지시": 6651,
      "인간과": 6652,
      "관리하는": 6653,
      "긍정적으로": 6654,
      "비행기": 6655,
      "통제": 6656,
      "연락을": 6657,
      "따돌림을": 6658,
      "스피": 6659,
      "고객의": 6660,
      "오스": 6661,
      "했고": 6662,
      "처리할": 6663,
      "erson": 6664,
      "윌리엄": 6665,
      "값이": 6666,
      "예쁘": 6667,
      "증진": 6668,
      "하였습니다": 6669,
      "남자친구": 6670,
      "떨어져": 6671,
      "가슴": 6672,
      "루즈": 6673,
      "윤리적인": 6674,
      "하더라고": 6675,
      "해결을": 6676,
      "ree": 6677,
      "45": 6678,
      "많습니다": 6679,
      "인용": 6680,
      "임신": 6681,
      "텍사": 6682,
      "줄거리를": 6683,
      "호흡": 6684,
      "언제인가요": 6685,
      "확인하세요": 6686,
      "표현으로": 6687,
      "gle": 6688,
      "패턴을": 6689,
      "쉽지": 6690,
      "터키": 6691,
      "커피를": 6692,
      "터를": 6693,
      "티브": 6694,
      "있을겁니다": 6695,
      "음악이": 6696,
      "듯이": 6697,
      "문으로": 6698,
      "신념": 6699,
      "심리": 6700,
      "애들": 6701,
      "필요하세요": 6702,
      "실에서": 6703,
      "줘서": 6704,
      "받으셨군요": 6705,
      "외로워": 6706,
      "3개의": 6707,
      "비는": 6708,
      "조건을": 6709,
      "respon": 6710,
      "식단": 6711,
      "심을": 6712,
      "위는": 6713,
      "일어나는": 6714,
      "번역해드릴": 6715,
      "계획에": 6716,
      "연예": 6717,
      "번째로": 6718,
      "alse": 6719,
      "가락": 6720,
      "이끌": 6721,
      "집단": 6722,
      "설립됐어": 6723,
      "무료": 6724,
      "슬픈": 6725,
      "의학": 6726,
      "져야": 6727,
      "터는": 6728,
      "ate": 6729,
      "사이가": 6730,
      "분류하십시오": 6731,
      "바뀌": 6732,
      "피네": 6733,
      "준비되어": 6734,
      "레슬러": 6735,
      "유리": 6736,
      "점과": 6737,
      "eather": 6738,
      "기초": 6739,
      "냉장": 6740,
      "생각됩니다": 6741,
      "떨어져서": 6742,
      "돌아가": 6743,
      "빠르고": 6744,
      "촬영": 6745,
      "봐서": 6746,
      "방법입니다": 6747,
      "내일은": 6748,
      "교수": 6749,
      "충돌": 6750,
      "190": 6751,
      "모두가": 6752,
      "스트레스가": 6753,
      "exp": 6754,
      "밝히": 6755,
      "변형": 6756,
      "어려웠": 6757,
      "활동이": 6758,
      "문자열을": 6759,
      "머리가": 6760,
      "있니": 6761,
      "잊지": 6762,
      "관련하여": 6763,
      "수준의": 6764,
      "곳으로": 6765,
      "관점에서": 6766,
      "구축": 6767,
      "어두": 6768,
      "얼른": 6769,
      "있음": 6770,
      "맛이": 6771,
      "월드컵": 6772,
      "양자": 6773,
      "춤을": 6774,
      "애니메이": 6775,
      "당시": 6776,
      "속성": 6777,
      "여겨": 6778,
      "줄어": 6779,
      "역학": 6780,
      "포함하여": 6781,
      "고마워": 6782,
      "당장": 6783,
      "주황": 6784,
      "긴장": 6785,
      "반갑": 6786,
      "얘기를": 6787,
      "이글": 6788,
      "좋아하지": 6789,
      "문에서": 6790,
      "이사": 6791,
      "재미있게": 6792,
      "가난": 6793,
      "내게": 6794,
      "유튜브": 6795,
      "시제로": 6796,
      "돈도": 6797,
      "연설": 6798,
      "오고": 6799,
      "점수를": 6800,
      "회복": 6801,
      "요약하는": 6802,
      "네가": 6803,
      "먹었어": 6804,
      "통화": 6805,
      "아닌데": 6806,
      "장르에": 6807,
      "알고리즘을": 6808,
      "바꿔주세요": 6809,
      "말도": 6810,
      "선물을": 6811,
      "향상시키는": 6812,
      "but": 6813,
      "다이": 6814,
      "부서": 6815,
      "원은": 6816,
      "충족": 6817,
      "마가": 6818,
      "모아": 6819,
      "요청하신": 6820,
      "요인에": 6821,
      "위험을": 6822,
      "콘텐츠": 6823,
      "조합": 6824,
      "아니지만": 6825,
      "미적분": 6826,
      "9년에": 6827,
      "과목": 6828,
      "당해서": 6829,
      "학습에": 6830,
      "시스템이": 6831,
      "추적하는": 6832,
      "3x": 6833,
      "건데": 6834,
      "모니": 6835,
      "유의": 6836,
      "다양성을": 6837,
      "10년": 6838,
      "측면을": 6839,
      "ght": 6840,
      "온도를": 6841,
      "사건을": 6842,
      "맥락을": 6843,
      "많으시군요": 6844,
      "왕따": 6845,
      "편안한": 6846,
      "누워": 6847,
      "문화에": 6848,
      "에너지의": 6849,
      "wor": 6850,
      "느라": 6851,
      "좋겠어요": 6852,
      "가능성은": 6853,
      "int": 6854,
      "벌레": 6855,
      "불교": 6856,
      "성과를": 6857,
      "공포": 6858,
      "줄이고": 6859,
      "쿠키": 6860,
      "않았기": 6861,
      "선수들의": 6862,
      "비서입니다": 6863,
      "비서라서": 6864,
      "미드": 6865,
      "제목이": 6866,
      "대가": 6867,
      "맡았습니다": 6868,
      "푸른": 6869,
      "모델로서": 6870,
      "누군가가": 6871,
      "이트": 6872,
      "질투": 6873,
      "번역해드리겠습니다": 6874,
      "일들을": 6875,
      "번역하는데": 6876,
      "라이브": 6877,
      "ice": 6878,
      "떠나": 6879,
      "배달": 6880,
      "벽에": 6881,
      "섭씨": 6882,
      "탐험": 6883,
      "어머니가": 6884,
      "혁신적인": 6885,
      "거주": 6886,
      "재배열": 6887,
      "좋더라": 6888,
      "출처": 6889,
      "답변하는": 6890,
      "못하므로": 6891,
      "토마토": 6892,
      "초대": 6893,
      "any": 6894,
      "아름답": 6895,
      "구절에서": 6896,
      "않으며": 6897,
      "차별": 6898,
      "성공에": 6899,
      "36": 6900,
      "볼까요": 6901,
      "집으로": 6902,
      "지내고": 6903,
      "목록에": 6904,
      "목적을": 6905,
      "성적을": 6906,
      "장의": 6907,
      "분석하길": 6908,
      "계산해주세요": 6909,
      "교육을": 6910,
      "수업을": 6911,
      "마시고": 6912,
      "놓고": 6913,
      "공유하고": 6914,
      "바꾸어": 6915,
      "달라집니다": 6916,
      "답하거나": 6917,
      "명확하고": 6918,
      "행복을": 6919,
      "안돼": 6920,
      "사람도": 6921,
      "말에": 6922,
      "오늘날": 6923,
      "선택하는": 6924,
      "발생합니다": 6925,
      "테스트합니다": 6926,
      "그리": 6927,
      "깊게": 6928,
      "분리": 6929,
      "커피숍으로": 6930,
      "weather": 6931,
      "었는지": 6932,
      "프렌치": 6933,
      "의미하는": 6934,
      "시작합니다": 6935,
      "코드가": 6936,
      "물리학": 6937,
      "예입니다": 6938,
      "당하고": 6939,
      "속에": 6940,
      "침해": 6941,
      "편하게": 6942,
      "온난화": 6943,
      "그로": 6944,
      "속한": 6945,
      "온도가": 6946,
      "활용하여": 6947,
      "대에서": 6948,
      "ind": 6949,
      "변경합니다": 6950,
      "제보해": 6951,
      "것보다": 6952,
      "성취": 6953,
      "스웨": 6954,
      "응용": 6955,
      "전화를": 6956,
      "책상": 6957,
      "함수": 6958,
      "서울에": 6959,
      "나누는": 6960,
      "자유를": 6961,
      "Python": 6962,
      "같네요": 6963,
      "순서를": 6964,
      "도와드리는데": 6965,
      "교정": 6966,
      "모래": 6967,
      "버트": 6968,
      "요인은": 6969,
      "트리플": 6970,
      "유니": 6971,
      "하자면": 6972,
      "시절": 6973,
      "아니고": 6974,
      "아버지가": 6975,
      "민족": 6976,
      "블로그": 6977,
      "아지": 6978,
      "잘하는": 6979,
      "생각에": 6980,
      "인공지능에": 6981,
      "안전하게": 6982,
      "않으셨": 6983,
      "완성하세요": 6984,
      "불행": 6985,
      "이들은": 6986,
      "읽어": 6987,
      "지문을": 6988,
      "엄마는": 6989,
      "미치지": 6990,
      "길이는": 6991,
      "일이야": 6992,
      "중하게": 6993,
      "특성": 6994,
      "1년에": 6995,
      "A와": 6996,
      "표현하나요": 6997,
      "남성": 6998,
      "활기": 6999,
      "유지하기": 7000,
      "선수들이": 7001,
      "나열합니다": 7002,
      "누락된": 7003,
      "물었습니다": 7004,
      "성공적인": 7005,
      "방향으로": 7006,
      "핸드폰": 7007,
      "수많은": 7008,
      "슨은": 7009,
      "어입니다": 7010,
      "물어볼": 7011,
      "False": 7012,
      "삽입": 7013,
      "수요": 7014,
      "오브": 7015,
      "으세요": 7016,
      "타지": 7017,
      "유일한": 7018,
      "전제와": 7019,
      "세계적으로": 7020,
      "근처의": 7021,
      "oogle": 7022,
      "클라우드에서": 7023,
      "반갑습니다": 7024,
      "너네": 7025,
      "Google": 7026,
      "스에": 7027,
      "오름": 7028,
      "외모": 7029,
      "율이": 7030,
      "치킨": 7031,
      "관객": 7032,
      "무리": 7033,
      "반의": 7034,
      "선택지": 7035,
      "발전과": 7036,
      "29": 7037,
      "모자를": 7038,
      "헌신": 7039,
      "작성하고": 7040,
      "존재하는": 7041,
      "걷는": 7042,
      "요청한": 7043,
      "만들었습니다": 7044,
      "대통령은": 7045,
      "보낼": 7046,
      "설탕": 7047,
      "음성": 7048,
      "주연": 7049,
      "원소": 7050,
      "종목": 7051,
      "풀이": 7052,
      "하죠": 7053,
      "예측을": 7054,
      "즐기고": 7055,
      "CT": 7056,
      "덕분에": 7057,
      "박물": 7058,
      "알았는데": 7059,
      "의존": 7060,
      "모르겠습니다": 7061,
      "의견으로는": 7062,
      "활기찬": 7063,
      "Sure": 7064,
      "잡고": 7065,
      "하는지에": 7066,
      "보군요": 7067,
      "없으며": 7068,
      "일자리를": 7069,
      "행운": 7070,
      "정보의": 7071,
      "귀하가": 7072,
      "편안하게": 7073,
      "맛을": 7074,
      "해본": 7075,
      "분석하거나": 7076,
      "정신적": 7077,
      "식물이": 7078,
      "조작": 7079,
      "평점": 7080,
      "게임의": 7081,
      "알아보고": 7082,
      "물로": 7083,
      "새는": 7084,
      "추운": 7085,
      "안전을": 7086,
      "사용자님의": 7087,
      "부동산": 7088,
      "예는": 7089,
      "표현입니다": 7090,
      "공동": 7091,
      "사로": 7092,
      "에피": 7093,
      "평점이": 7094,
      "목표로": 7095,
      "세상에": 7096,
      "Jav": 7097,
      "있군요": 7098,
      "게임이": 7099,
      "진술은": 7100,
      "눈을": 7101,
      "수리": 7102,
      "주어지고": 7103,
      "대명사": 7104,
      "들지": 7105,
      "유익": 7106,
      "선택이": 7107,
      "피드백": 7108,
      "혜택": 7109,
      "존재할": 7110,
      "시계나": 7111,
      "가깝습니다": 7112,
      "단계에": 7113,
      "분류됩니다": 7114,
      "전문적인": 7115,
      "잠재적인": 7116,
      "어두운": 7117,
      "갖는": 7118,
      "단백질": 7119,
      "피해를": 7120,
      "했다는": 7121,
      "행성": 7122,
      "언제부터": 7123,
      "성공적으로": 7124,
      "정렬합니다": 7125,
      "애니메이션": 7126,
      "명한": 7127,
      "밥을": 7128,
      "학문": 7129,
      "feel": 7130,
      "솔직": 7131,
      "의도": 7132,
      "스페인어를": 7133,
      "금속": 7134,
      "만화": 7135,
      "병이": 7136,
      "희생": 7137,
      "작성하여": 7138,
      "제주도": 7139,
      "공기가": 7140,
      "화석": 7141,
      "다음을": 7142,
      "이해한": 7143,
      "그렇군요": 7144,
      "양을": 7145,
      "엔지니": 7146,
      "편이": 7147,
      "음식은": 7148,
      "변환해주세요": 7149,
      "3개": 7150,
      "었다고": 7151,
      "유연": 7152,
      "차이는": 7153,
      "장면을": 7154,
      "먹어야": 7155,
      "공백을": 7156,
      "등과": 7157,
      "구조와": 7158,
      "아르바이": 7159,
      "다녔": 7160,
      "언어입니다": 7161,
      "평가가": 7162,
      "궁금하신가요": 7163,
      "respond": 7164,
      "ti": 7165,
      "대화에서": 7166,
      "여성의": 7167,
      "위원회": 7168,
      "무기": 7169,
      "쪽에": 7170,
      "중국의": 7171,
      "봐야겠다": 7172,
      "happy": 7173,
      "계시": 7174,
      "발달": 7175,
      "우리에게": 7176,
      "ning": 7177,
      "진심": 7178,
      "해결에": 7179,
      "부탁드려요": 7180,
      "작품은": 7181,
      "RO": 7182,
      "골프": 7183,
      "드니": 7184,
      "무엇이든지": 7185,
      "즉시": 7186,
      "사용해야": 7187,
      "올바르지": 7188,
      "버렸어": 7189,
      "전공": 7190,
      "red": 7191,
      "경험과": 7192,
      "오름차순으로": 7193,
      "5년에": 7194,
      "감자": 7195,
      "피언": 7196,
      "컴퓨팅": 7197,
      "생각해보세요": 7198,
      "예측하는": 7199,
      "갱년": 7200,
      "줄이는": 7201,
      "창출": 7202,
      "취업을": 7203,
      "이벤트에": 7204,
      "다행이야": 7205,
      "대비": 7206,
      "진단": 7207,
      "번역해드릴까요": 7208,
      "단락이": 7209,
      "다이어트": 7210,
      "서류": 7211,
      "태양계": 7212,
      "추적하거나": 7213,
      "따돌림": 7214,
      "표현합니다": 7215,
      "미쳤다고": 7216,
      "멀어": 7217,
      "지기": 7218,
      "사람입니다": 7219,
      "영향이": 7220,
      "about": 7221,
      "로드": 7222,
      "이점을": 7223,
      "걸로": 7224,
      "건강검진": 7225,
      "에피소": 7226,
      "Java": 7227,
      "무섭": 7228,
      "문제든지": 7229,
      "어쩔": 7230,
      "지긋": 7231,
      "치료를": 7232,
      "폭발": 7233,
      "깨끗": 7234,
      "재무": 7235,
      "고양이를": 7236,
      "물체의": 7237,
      "나이에": 7238,
      "챔피언": 7239,
      "고객에게": 7240,
      "같지": 7241,
      "셔츠": 7242,
      "번의": 7243,
      "시계를": 7244,
      "문제입니다": 7245,
      "도쿄": 7246,
      "위에서": 7247,
      "필요하지": 7248,
      "효과가": 7249,
      "평균을": 7250,
      "나머지": 7251,
      "카운티": 7252,
      "경영": 7253,
      "과일을": 7254,
      "크라": 7255,
      "계산하는": 7256,
      "행복해": 7257,
      "친절한": 7258,
      "객관": 7259,
      "방에": 7260,
      "음식이": 7261,
      "데니가": 7262,
      "약화": 7263,
      "공부에": 7264,
      "교회": 7265,
      "퀴즈": 7266,
      "사진에": 7267,
      "담고": 7268,
      "생각합시다": 7269,
      "ext": 7270,
      "by": 7271,
      "did": 7272,
      "빛을": 7273,
      "시길": 7274,
      "신발": 7275,
      "게임에": 7276,
      "추가하여": 7277,
      "인칭": 7278,
      "주사": 7279,
      "시작되었습니다": 7280,
      "정부가": 7281,
      "문서의": 7282,
      "문구는": 7283,
      "다닐": 7284,
      "불평": 7285,
      "빌려": 7286,
      "위치가": 7287,
      "보유": 7288,
      "숨을": 7289,
      "우유": 7290,
      "고민을": 7291,
      "텍사스": 7292,
      "도시를": 7293,
      "유형은": 7294,
      "재밌어": 7295,
      "다루고": 7296,
      "냉장고": 7297,
      "관점을": 7298,
      "바꿀": 7299,
      "옛날": 7300,
      "우와": 7301,
      "유래": 7302,
      "음이": 7303,
      "투갈": 7304,
      "문법에": 7305,
      "풀어주세요": 7306,
      "대한민국의": 7307,
      "숙제를": 7308,
      "오른": 7309,
      "우려": 7310,
      "사항이나": 7311,
      "일어날": 7312,
      "도우미로서": 7313,
      "비유를": 7314,
      "소파": 7315,
      "용어를": 7316,
      "이젠": 7317,
      "받아들일": 7318,
      "단지": 7319,
      "배송": 7320,
      "볼까": 7321,
      "휴가를": 7322,
      "어렵다고": 7323,
      "we": 7324,
      "성공은": 7325,
      "기사에": 7326,
      "약속을": 7327,
      "플라스틱": 7328,
      "만난": 7329,
      "연극": 7330,
      "설명하십시오": 7331,
      "사랑을": 7332,
      "상태에": 7333,
      "처음에는": 7334,
      "ROM": 7335,
      "FROM": 7336,
      "써주세요": 7337,
      "정수": 7338,
      "플로": 7339,
      "있는데요": 7340,
      "네이버": 7341,
      "6년에": 7342,
      "됐습니다": 7343,
      "아일": 7344,
      "일과": 7345,
      "대화하고": 7346,
      "예술가": 7347,
      "거기서": 7348,
      "아일랜드": 7349,
      "사용자에게": 7350,
      "포르투갈": 7351,
      "꾸준히": 7352,
      "SELE": 7353,
      "SELECT": 7354,
      "온실": 7355,
      "현재는": 7356,
      "여러분께": 7357,
      "힘들고": 7358,
      "병원에서": 7359,
      "흐름을": 7360,
      "독일어로": 7361,
      "5살짜리": 7362,
      "7년에": 7363,
      "과정은": 7364,
      "분명히": 7365,
      "은근": 7366,
      "기술적": 7367,
      "효과를": 7368,
      "다리를": 7369,
      "이야기하는": 7370,
      "시작할": 7371,
      "장르를": 7372,
      "길이를": 7373,
      "법적": 7374,
      "고민이야": 7375,
      "끊임": 7376,
      "분들이": 7377,
      "분석할": 7378,
      "지정된": 7379,
      "시원": 7380,
      "피해": 7381,
      "가지로": 7382,
      "정확할": 7383,
      "준비하고": 7384,
      "문에": 7385,
      "없지": 7386,
      "일본에": 7387,
      "연구를": 7388,
      "짜증나": 7389,
      "art": 7390,
      "리더십": 7391,
      "증이": 7392,
      "확인해보세요": 7393,
      "기분이야": 7394,
      "아침입니다": 7395,
      "커뮤니케이션": 7396,
      "관용": 7397,
      "코딩": 7398,
      "타악기": 7399,
      "퍼브": 7400,
      "언어인": 7401,
      "상태가": 7402,
      "마켓": 7403,
      "매년": 7404,
      "사막": 7405,
      "오전": 7406,
      "장님": 7407,
      "질문으로": 7408,
      "가능성": 7409,
      "주황색": 7410,
      "가치는": 7411,
      "알았어": 7412,
      "은유를": 7413,
      "편지를": 7414,
      "프리": 7415,
      "친구들을": 7416,
      "평가해": 7417,
      "이메일을": 7418,
      "말하나요": 7419,
      "보관": 7420,
      "서서": 7421,
      "았던": 7422,
      "연료": 7423,
      "한심해": 7424,
      "호랑": 7425,
      "모여": 7426,
      "중요하지만": 7427,
      "의미하며": 7428,
      "개최": 7429,
      "거리는": 7430,
      "극적인": 7431,
      "데이터의": 7432,
      "축하드려요": 7433,
      "소문자": 7434,
      "속도로": 7435,
      "체에": 7436,
      "설명드릴": 7437,
      "의미로": 7438,
      "정부는": 7439,
      "직면한": 7440,
      "게도": 7441,
      "들었습니다": 7442,
      "품을": 7443,
      "적이거나": 7444,
      "찾아야": 7445,
      "미안하지만": 7446,
      "수소": 7447,
      "않게": 7448,
      "화씨": 7449,
      "아이템": 7450,
      "아름다움을": 7451,
      "것의": 7452,
      "대처": 7453,
      "매번": 7454,
      "싸웠어": 7455,
      "트렌": 7456,
      "폭력을": 7457,
      "해결해야": 7458,
      "피아노": 7459,
      "Je": 7460,
      "때도": 7461,
      "에어": 7462,
      "중을": 7463,
      "번역된": 7464,
      "2021년": 7465,
      "가보고": 7466,
      "무조건": 7467,
      "들어갈": 7468,
      "기억하는": 7469,
      "논리적인": 7470,
      "당혹": 7471,
      "읽거나": 7472,
      "함수를": 7473,
      "분석해주세요": 7474,
      "자유의": 7475,
      "공원에": 7476,
      "장난감을": 7477,
      "생태계의": 7478,
      "사전": 7479,
      "쉬는": 7480,
      "없었습니다": 7481,
      "주었습니다": 7482,
      "어려우": 7483,
      "레스토랑입니다": 7484,
      "기회가": 7485,
      "way": 7486,
      "물과": 7487,
      "사야": 7488,
      "채식": 7489,
      "나무를": 7490,
      "확실한": 7491,
      "먹은": 7492,
      "절약": 7493,
      "설명하기": 7494,
      "중국어": 7495,
      "노래의": 7496,
      "중심부에": 7497,
      "박물관": 7498,
      "40": 7499,
      "나뭇": 7500,
      "무릎": 7501,
      "죽을": 7502,
      "홀리": 7503,
      "후에는": 7504,
      "가격대의": 7505,
      "세계를": 7506,
      "특징은": 7507,
      "!\"": 7508,
      "하늘을": 7509,
      "Translat": 7510,
      "였어": 7511,
      "친근": 7512,
      "형식": 7513,
      "화려": 7514,
      "구조는": 7515,
      "기린": 7516,
      "남아": 7517,
      "비롯": 7518,
      "키우고": 7519,
      "친구한테": 7520,
      "age": 7521,
      "가루": 7522,
      "맞은": 7523,
      "중점을": 7524,
      "행사": 7525,
      "다음에는": 7526,
      "자유롭게": 7527,
      "다리가": 7528,
      "등으로": 7529,
      "마리의": 7530,
      "포함합니다": 7531,
      "들으": 7532,
      "병에": 7533,
      "제출": 7534,
      "최소화": 7535,
      "식료": 7536,
      "원본": 7537,
      "사건이": 7538,
      "흥미롭": 7539,
      "결성": 7540,
      "베트": 7541,
      "암석": 7542,
      "장비": 7543,
      "혼합": 7544,
      "시킵니다": 7545,
      "제공해주세요": 7546,
      "ame": 7547,
      "열이": 7548,
      "즐겁게": 7549,
      "가로": 7550,
      "부작용": 7551,
      "않다": 7552,
      "지원하는": 7553,
      "결정이": 7554,
      "성장을": 7555,
      "반복하되": 7556,
      "ble": 7557,
      "답이": 7558,
      "려는": 7559,
      "있던": 7560,
      "장님이": 7561,
      "친화적이지": 7562,
      "시스템은": 7563,
      "지식과": 7564,
      "검증": 7565,
      "력에": 7566,
      "자리에": 7567,
      "테마": 7568,
      "팀워크": 7569,
      "생각하면": 7570,
      "중요한가": 7571,
      "후회돼": 7572,
      "명시되어": 7573,
      "가득한": 7574,
      "하셔야": 7575,
      "글로벌": 7576,
      "넓은": 7577,
      "달리고": 7578,
      "목록의": 7579,
      "하늘은": 7580,
      "키워드를": 7581,
      "오히": 7582,
      "트에서": 7583,
      "흥분": 7584,
      "시간의": 7585,
      "ite": 7586,
      "선생님께": 7587,
      "비용은": 7588,
      "오히려": 7589,
      "타민": 7590,
      "인도의": 7591,
      "반응을": 7592,
      "홀리데이": 7593,
      "받았는데": 7594,
      "보며": 7595,
      "혈압": 7596,
      "contin": 7597,
      "가려고": 7598,
      "믿을": 7599,
      "비타민": 7600,
      "좋고": 7601,
      "좋았어": 7602,
      "형을": 7603,
      "어려워서": 7604,
      "문법과": 7605,
      "추가로": 7606,
      "정의와": 7607,
      "가사를": 7608,
      "블랙": 7609,
      "세는": 7610,
      "시골": 7611,
      "의식": 7612,
      "스타일을": 7613,
      "가치관": 7614,
      "깁니다": 7615,
      "얻는": 7616,
      "인수": 7617,
      "주며": 7618,
      "활성": 7619,
      "프랑스의": 7620,
      "프로그램의": 7621,
      "스토리": 7622,
      "포도당": 7623,
      "콘서": 7624,
      "향해": 7625,
      "제공하지만": 7626,
      "포함하고": 7627,
      "틀린": 7628,
      "당연하지": 7629,
      "선의": 7630,
      "수립": 7631,
      "창조": 7632,
      "체제": 7633,
      "내용은": 7634,
      "이상적인": 7635,
      "직면해": 7636,
      "DNA": 7637,
      "능동태": 7638,
      "부부": 7639,
      "월요일": 7640,
      "문화의": 7641,
      "권한이": 7642,
      "했지": 7643,
      "하기가": 7644,
      "형태를": 7645,
      "마이크": 7646,
      "8년에": 7647,
      "서운": 7648,
      "소화": 7649,
      "창한": 7650,
      "피자": 7651,
      "흔한": 7652,
      "생각하시는군요": 7653,
      "189": 7654,
      "일주일": 7655,
      "바쁜": 7656,
      "스코": 7657,
      "한국에서": 7658,
      "개선할": 7659,
      "영국의": 7660,
      "상당히": 7661,
      "인들이": 7662,
      "지게": 7663,
      "지출": 7664,
      "대체할": 7665,
      "고립": 7666,
      "없이는": 7667,
      "트레": 7668,
      "요소들이": 7669,
      "이루는": 7670,
      "장애가": 7671,
      "간다": 7672,
      "도출": 7673,
      "때로": 7674,
      "부상": 7675,
      "어둠": 7676,
      "하기에": 7677,
      "연구에": 7678,
      "만원": 7679,
      "어른": 7680,
      "와이": 7681,
      "해봅시다": 7682,
      "경험하지": 7683,
      "논란": 7684,
      "미용": 7685,
      "했기": 7686,
      "형이": 7687,
      "필요해": 7688,
      "설명문을": 7689,
      "read": 7690,
      "멤버": 7691,
      "키가": 7692,
      "고쳐": 7693,
      "다행이": 7694,
      "간략": 7695,
      "감상": 7696,
      "감한": 7697,
      "막막": 7698,
      "해석해주세요": 7699,
      "식별하세요": 7700,
      "콘텐츠를": 7701,
      "괜히": 7702,
      "달콤": 7703,
      "말했습니다": 7704,
      "속도": 7705,
      "시켰": 7706,
      "부분은": 7707,
      "부모님과": 7708,
      "일어나": 7709,
      "만족스러운": 7710,
      "이동합니다": 7711,
      "어땠어": 7712,
      "간섭": 7713,
      "구의": 7714,
      "반짝": 7715,
      "분포": 7716,
      "잠깐": 7717,
      "주행": 7718,
      "예술적": 7719,
      "만점의": 7720,
      "움직임": 7721,
      "3년에": 7722,
      "무작": 7723,
      "설득": 7724,
      "정기": 7725,
      "페이": 7726,
      "전달합니다": 7727,
      "처리하는": 7728,
      "인생의": 7729,
      "저장하거나": 7730,
      "이혼을": 7731,
      "26": 7732,
      "감성을": 7733,
      "거라고": 7734,
      "놀랐": 7735,
      "줄게": 7736,
      "취하고": 7737,
      "트에": 7738,
      "하잖아": 7739,
      "태양이": 7740,
      "혼란을": 7741,
      "풍경": 7742,
      "중요해": 7743,
      "학생들의": 7744,
      "구문이나": 7745,
      "걸리": 7746,
      "브루": 7747,
      "원하십니까": 7748,
      "초록": 7749,
      "동물로": 7750,
      "것부터": 7751,
      "열을": 7752,
      "2를": 7753,
      "학생입니다": 7754,
      "감성": 7755,
      "답니다": 7756,
      "럽고": 7757,
      "레스트": 7758,
      "미세": 7759,
      "설명하거나": 7760,
      "직장에": 7761,
      "내서": 7762,
      "예쁜": 7763,
      "의무": 7764,
      "창의성을": 7765,
      "축하드립니다": 7766,
      "know": 7767,
      "개별": 7768,
      "바쁘": 7769,
      "2020년": 7770,
      "continue": 7771,
      "되네": 7772,
      "반에": 7773,
      "정보만으로는": 7774,
      "작업에서는": 7775,
      "표시된": 7776,
      "An": 7777,
      "건조": 7778,
      "굉장": 7779,
      "맞추": 7780,
      "인기가": 7781,
      "억울해": 7782,
      "미식": 7783,
      "빛의": 7784,
      "철자": 7785,
      "노력과": 7786,
      "시키기": 7787,
      "태양은": 7788,
      "문장에는": 7789,
      "음식에": 7790,
      "분류할": 7791,
      "riend": 7792,
      "가는데": 7793,
      "파는": 7794,
      "만들어진": 7795,
      "과제입니다": 7796,
      "가이드": 7797,
      "받습니다": 7798,
      "토양": 7799,
      "가족에게": 7800,
      "모르겠": 7801,
      "Qwen입니다": 7802,
      "계란": 7803,
      "해리": 7804,
      "기술에": 7805,
      "레스토랑인": 7806,
      "옵션이": 7807,
      "리뷰에": 7808,
      "풀어야": 7809,
      "맥락에": 7810,
      "기쁘시군요": 7811,
      "지침을": 7812,
      "복합적으로": 7813,
      "추구하는": 7814,
      "떨어졌어": 7815,
      "논의하고": 7816,
      "나이는": 7817,
      "첨부": 7818,
      "합성": 7819,
      "입력된": 7820,
      "경우에는": 7821,
      "않는다고": 7822,
      "언급한": 7823,
      "15단어의": 7824,
      "2년에": 7825,
      "데는": 7826,
      "시점": 7827,
      "우아": 7828,
      "떨어진": 7829,
      "도우미로": 7830,
      "두려움": 7831,
      "신앙": 7832,
      "얻고": 7833,
      "있대": 7834,
      "포함될": 7835,
      "생각해보자": 7836,
      "가운": 7837,
      "만났": 7838,
      "샐러": 7839,
      "승리": 7840,
      "오토": 7841,
      "의미와": 7842,
      "날아": 7843,
      "들어주세요": 7844,
      "노력하겠습니다": 7845,
      "날을": 7846,
      "않다면": 7847,
      "올랐": 7848,
      "프라": 7849,
      "화한": 7850,
      "찾아서": 7851,
      "요소라고": 7852,
      "사고로": 7853,
      "신선한": 7854,
      "\\*": 7855,
      "넓이를": 7856,
      "몰래": 7857,
      "씨가": 7858,
      "연속": 7859,
      "테일러": 7860,
      "단어들이": 7861,
      "대화해": 7862,
      "10개의": 7863,
      "능력과": 7864,
      "검색하는": 7865,
      "덧붙여": 7866,
      "마리": 7867,
      "속도를": 7868,
      "제공하면": 7869,
      "계산해": 7870,
      "성장과": 7871,
      "느껴지": 7872,
      "시제를": 7873,
      "원에": 7874,
      "주방": 7875,
      "받아들이": 7876,
      "캐릭터의": 7877,
      "시겠군요": 7878,
      "의류": 7879,
      "범위를": 7880,
      "것일": 7881,
      "심장": 7882,
      "설명이나": 7883,
      "1과": 7884,
      "고정": 7885,
      "금방": 7886,
      "도구를": 7887,
      "뭔지": 7888,
      "부산": 7889,
      "줄이기": 7890,
      "대답해주세요": 7891,
      "rom": 7892,
      "빈칸을": 7893,
      "ma": 7894,
      "낮고": 7895,
      "우산을": 7896,
      "지션": 7897,
      "지키": 7898,
      "폭풍": 7899,
      "해야지": 7900,
      "준비하는": 7901,
      "코로나19": 7902,
      "공간을": 7903,
      "오스틴": 7904,
      "감동": 7905,
      "때의": 7906,
      "발명": 7907,
      "싶다고": 7908,
      "애가": 7909,
      "이건": 7910,
      "접속": 7911,
      "페이스": 7912,
      "무엇이라고": 7913,
      "날짜와": 7914,
      "과도": 7915,
      "방식이": 7916,
      "출산": 7917,
      "남자친구랑": 7918,
      "의사가": 7919,
      "이벤트를": 7920,
      "나눈": 7921,
      "마찬": 7922,
      "문은": 7923,
      "석탄": 7924,
      "알람": 7925,
      "옵니다": 7926,
      "정책을": 7927,
      "척도": 7928,
      "알려줍니다": 7929,
      "구두점": 7930,
      "같다": 7931,
      "국은": 7932,
      "발휘": 7933,
      "은유": 7934,
      "영화에서": 7935,
      "정말로": 7936,
      "종교적": 7937,
      "귀여운": 7938,
      "아까": 7939,
      "무지개": 7940,
      "너희": 7941,
      "등록": 7942,
      "맞추고": 7943,
      "크리스": 7944,
      "하시거나": 7945,
      "가족은": 7946,
      "국민의": 7947,
      "ER": 7948,
      "론은": 7949,
      "보셨나요": 7950,
      "상자": 7951,
      "잘해": 7952,
      "생각할": 7953,
      "감정과": 7954,
      "남편의": 7955,
      "존재하지": 7956,
      "약한": 7957,
      "유지할": 7958,
      "진로를": 7959,
      "바이러스": 7960,
      "60": 7961,
      "련의": 7962,
      "웠습니다": 7963,
      "부모님께서": 7964,
      "시각을": 7965,
      "가수": 7966,
      "농담": 7967,
      "답할": 7968,
      "스프": 7969,
      "월한": 7970,
      "죽고": 7971,
      "허리": 7972,
      "질문들을": 7973,
      "조금만": 7974,
      "기고": 7975,
      "발매": 7976,
      "법은": 7977,
      "색을": 7978,
      "성가": 7979,
      "웹툰": 7980,
      "종을": 7981,
      "지로": 7982,
      "정보도": 7983,
      "행복하게": 7984,
      "달걀": 7985,
      "수용": 7986,
      "lan": 7987,
      "년이": 7988,
      "몸에": 7989,
      "부피": 7990,
      "신청": 7991,
      "좌절": 7992,
      "풀기": 7993,
      "우리나라": 7994,
      "지역을": 7995,
      "후회가": 7996,
      "나눠주시면": 7997,
      "변수": 7998,
      "유엔": 7999,
      "대학을": 8000,
      "가져올": 8001,
      "이탈리아어": 8002,
      "말한": 8003,
      "배터": 8004,
      "세워": 8005,
      "평가하는": 8006,
      "GPT": 8007,
      "모호": 8008,
      "크림": 8009,
      "하겠어요": 8010,
      "힘들어서": 8011,
      "스마트폰의": 8012,
      "둘레": 8013,
      "이외의": 8014,
      "자원을": 8015,
      "AI가": 8016,
      "작업은": 8017,
      "수정을": 8018,
      "케이크를": 8019,
      "제임스": 8020,
      "3의": 8021,
      "스티": 8022,
      "어떻습니까": 8023,
      "것이든": 8024,
      "이름과": 8025,
      "장소는": 8026,
      "가입": 8027,
      "데려": 8028,
      "것이며": 8029,
      "지역은": 8030,
      "하나씩": 8031,
      "아무리": 8032,
      "대답을": 8033,
      "말하십시오": 8034,
      "살았습니다": 8035,
      "죽은": 8036,
      "전달할": 8037,
      "등장하는": 8038,
      "5개를": 8039,
      "==": 8040,
      "꼬마": 8041,
      "조류": 8042,
      "충류": 8043,
      "파충류": 8044,
      "가능하": 8045,
      "기여할": 8046,
      "조각을": 8047,
      "먹다": 8048,
      "실수": 8049,
      "열대": 8050,
      "의회": 8051,
      "조화를": 8052,
      "답변해주세요": 8053,
      "표현해": 8054,
      "결정할": 8055,
      "고양이에": 8056,
      "없으니": 8057,
      "im": 8058,
      "드세요": 8059,
      "청소년": 8060,
      "QL": 8061,
      "SQL": 8062,
      "분과": 8063,
      "표현의": 8064,
      "예측할": 8065,
      "만나고": 8066,
      "법칙은": 8067,
      "배워": 8068,
      "보라": 8069,
      "주차": 8070,
      "기억을": 8071,
      "ph": 8072,
      "력의": 8073,
      "보도": 8074,
      "사자": 8075,
      "시기는": 8076,
      "있었고": 8077,
      "종류는": 8078,
      "사과는": 8079,
      "누구였나요": 8080,
      "본을": 8081,
      "저축": 8082,
      "높일": 8083,
      "옳은": 8084,
      "출생": 8085,
      "할게요": 8086,
      "사용하거나": 8087,
      "이름이나": 8088,
      "질문이든": 8089,
      "운동은": 8090,
      "초래할": 8091,
      "안타깝게도": 8092,
      "감염": 8093,
      "대수학": 8094,
      "뿐입니다": 8095,
      "주셨": 8096,
      "지리적": 8097,
      "퍼즐": 8098,
      "문제와": 8099,
      "보호하고": 8100,
      "과제에": 8101,
      "공식은": 8102,
      "주장을": 8103,
      "★★★★": 8104,
      "24시간": 8105,
      "고요한": 8106,
      "Apple": 8107,
      "끝에": 8108,
      "때부터": 8109,
      "세금": 8110,
      "인권": 8111,
      "거짓말을": 8112,
      "붙여넣": 8113,
      "공무": 8114,
      "량은": 8115,
      "액션": 8116,
      "적일": 8117,
      "웹사이트에서": 8118,
      "유도": 8119,
      "챗봇": 8120,
      "철도": 8121,
      "이번에는": 8122,
      "대중교통": 8123,
      "때때로": 8124,
      "수술을": 8125,
      "오오": 8126,
      "효율성을": 8127,
      "려진": 8128,
      "앤젤": 8129,
      "잃어버": 8130,
      "지식이": 8131,
      "주어와": 8132,
      "위치에서": 8133,
      "많으시겠어요": 8134,
      "mor": 8135,
      "않나요": 8136,
      "판타지": 8137,
      "정보든": 8138,
      "사용하세요": 8139,
      "모델에": 8140,
      "주변의": 8141,
      "어울리는": 8142,
      "대명사를": 8143,
      "불만족": 8144,
      "순환": 8145,
      "태그": 8146,
      "지금도": 8147,
      "위험한": 8148,
      "귀찮아": 8149,
      "from": 8150,
      "not": 8151,
      "구멍": 8152,
      "만성": 8153,
      "적이야": 8154,
      "중복": 8155,
      "추천하시겠습니까": 8156,
      "식물은": 8157,
      "앤젤레스": 8158,
      "ever": 8159,
      "경주": 8160,
      "등산": 8161,
      "체육": 8162,
      "주시길": 8163,
      "기록을": 8164,
      "다루는": 8165,
      "담배를": 8166,
      "4년에": 8167,
      "ple": 8168,
      "마침": 8169,
      "부르": 8170,
      "빛나는": 8171,
      "획득": 8172,
      "부탁합니다": 8173,
      "창의성과": 8174,
      "겪은": 8175,
      "탐색": 8176,
      "변화와": 8177,
      "걱정되시는군요": 8178,
      "스파이스": 8179,
      "une": 8180,
      "먼지": 8181,
      "사서": 8182,
      "암호": 8183,
      "활동은": 8184,
      "맥락에서": 8185,
      "대한민국": 8186,
      "익숙": 8187,
      "정규": 8188,
      "진단을": 8189,
      "한국어의": 8190,
      "모르겠어요": 8191,
      "사고가": 8192,
      "소녀는": 8193,
      "감독은": 8194,
      "커뮤니티": 8195,
      "딸기": 8196,
      "산소를": 8197,
      "쓰러": 8198,
      "지질": 8199,
      "타임": 8200,
      "이야기할": 8201,
      "발전이": 8202,
      "정답이": 8203,
      "나오지": 8204,
      "스트라다": 8205,
      "넣습니다": 8206,
      "달린": 8207,
      "수식을": 8208,
      "단락에": 8209,
      "애완": 8210,
      "위가": 8211,
      "입이": 8212,
      "합의": 8213,
      "그런거": 8214,
      "입력하세요": 8215,
      "그룹이": 8216,
      "대문자를": 8217,
      "굉장히": 8218,
      "mo": 8219,
      "나시겠어요": 8220,
      "연봉": 8221,
      "착용": 8222,
      "하라고": 8223,
      "파악하세요": 8224,
      "파악하고": 8225,
      "개월": 8226,
      "어머": 8227,
      "이럴": 8228,
      "제어": 8229,
      "결정에": 8230,
      "평균은": 8231,
      "긍정적입니다": 8232,
      "못했어": 8233,
      "서술": 8234,
      "우드": 8235,
      "학을": 8236,
      "회원": 8237,
      "감정에": 8238,
      "남자친구와": 8239,
      "스포츠의": 8240,
      "언급되어": 8241,
      "아로": 8242,
      "인공지능은": 8243,
      "표현해주세요": 8244,
      "가족을": 8245,
      "있었어요": 8246,
      "생활에서": 8247,
      "검토하고": 8248,
      "파악하는": 8249,
      "sh": 8250,
      "남에": 8251,
      "시카": 8252,
      "약간의": 8253,
      "열등": 8254,
      "오르는": 8255,
      "테인": 8256,
      "부정적으로": 8257,
      "didn": 8258,
      "걸려": 8259,
      "단일": 8260,
      "찾거나": 8261,
      "오늘이": 8262,
      "중요한가요": 8263,
      "해석하는": 8264,
      "결혼식": 8265,
      "조건에": 8266,
      "pom": 8267,
      "순위를": 8268,
      "씨의": 8269,
      "온도는": 8270,
      "모두에게": 8271,
      "속상하셨겠어요": 8272,
      "힘들게": 8273,
      "포인트를": 8274,
      "제조업체": 8275,
      "Cot": 8276,
      "ip": 8277,
      "회전": 8278,
      "그러한": 8279,
      "보호와": 8280,
      "확률은": 8281,
      "Cotto": 8282,
      "많더라": 8283,
      "빛이": 8284,
      "트레이": 8285,
      "피닉": 8286,
      "해소": 8287,
      "여러가지": 8288,
      "느끼게": 8289,
      "곳의": 8290,
      "망을": 8291,
      "삼각": 8292,
      "언어가": 8293,
      "결정했습니다": 8294,
      "살아야": 8295,
      "부족한": 8296,
      "5입니다": 8297,
      "높이고": 8298,
      "샘플": 8299,
      "양쪽": 8300,
      "와의": 8301,
      "원문을": 8302,
      "터링": 8303,
      "물론이에요": 8304,
      "제목의": 8305,
      "코드에": 8306,
      "나무가": 8307,
      "메시지가": 8308,
      "프로그램에": 8309,
      "자식들에게": 8310,
      "기업이": 8311,
      "못하니": 8312,
      "같애": 8313,
      "배치": 8314,
      "외출": 8315,
      "위대한": 8316,
      "의역": 8317,
      "관리에": 8318,
      "제목이나": 8319,
      "역사상": 8320,
      "아내의": 8321,
      "아마존": 8322,
      "물질의": 8323,
      "속의": 8324,
      "취하는": 8325,
      "모습이": 8326,
      "주인공은": 8327,
      "공식을": 8328,
      "절차": 8329,
      "생각하나요": 8330,
      "반면에": 8331,
      "규제": 8332,
      "엘리": 8333,
      "투표": 8334,
      "영어와": 8335,
      "언어에서": 8336,
      "프라이버시를": 8337,
      "겨진": 8338,
      "남친": 8339,
      "라디오": 8340,
      "발전은": 8341,
      "문맥에서": 8342,
      "슬프고": 8343,
      "직원이": 8344,
      "3가지": 8345,
      "공감": 8346,
      "논문을": 8347,
      "리게": 8348,
      "마련": 8349,
      "혈관": 8350,
      "제공해주셔야": 8351,
      "제안해주세요": 8352,
      "123": 8353,
      "5의": 8354,
      "공정한": 8355,
      "날은": 8356,
      "소스를": 8357,
      "신중하게": 8358,
      "아드": 8359,
      "호수": 8360,
      "번역에": 8361,
      "그렇긴": 8362,
      "가가": 8363,
      "사탕": 8364,
      "재킷": 8365,
      "폐기": 8366,
      "의미하나요": 8367,
      "제거합니다": 8368,
      "걸릴": 8369,
      "기름": 8370,
      "나네": 8371,
      "조성": 8372,
      "화면": 8373,
      "생성하십시오": 8374,
      "적이며": 8375,
      "계산을": 8376,
      "도시에서": 8377,
      "혼자서": 8378,
      "거대한": 8379,
      "라리": 8380,
      "말하면": 8381,
      "아님": 8382,
      "화합니다": 8383,
      "전제에는": 8384,
      "소득이": 8385,
      "로스앤젤레스": 8386,
      "몸을": 8387,
      "불필요한": 8388,
      "이집": 8389,
      "정에": 8390,
      "종은": 8391,
      "소설을": 8392,
      "전쟁의": 8393,
      "먹지": 8394,
      "파트": 8395,
      "사람이야": 8396,
      "화려한": 8397,
      "면적은": 8398,
      "빼고": 8399,
      "욕을": 8400,
      "입사": 8401,
      "해주는": 8402,
      "화산": 8403,
      "과정에": 8404,
      "단락에서": 8405,
      "ally": 8406,
      "존중하는": 8407,
      "교훈": 8408,
      "내내": 8409,
      "당했어": 8410,
      "셨는지": 8411,
      "앞두고": 8412,
      "홍보": 8413,
      "기반을": 8414,
      "시스템에": 8415,
      "디바이스의": 8416,
      "나가는": 8417,
      "지적": 8418,
      "의미에": 8419,
      "여행에": 8420,
      "다르지만": 8421,
      "mange": 8422,
      "가상의": 8423,
      "갖추고": 8424,
      "을까": 8425,
      "패션": 8426,
      "하드": 8427,
      "상황과": 8428,
      "경우에": 8429,
      "세부사항이": 8430,
      "캐릭터를": 8431,
      "산소가": 8432,
      "pomme": 8433,
      "자극": 8434,
      "개선하는": 8435,
      "들려주시면": 8436,
      "가구": 8437,
      "담긴": 8438,
      "범주": 8439,
      "새를": 8440,
      "건강과": 8441,
      "사실인지": 8442,
      "종류에": 8443,
      "역사에": 8444,
      "레이블": 8445,
      "걸린": 8446,
      "폴란드": 8447,
      "언어와": 8448,
      "동물입니다": 8449,
      "이용한": 8450,
      "all": 8451,
      "ac": 8452,
      "둘이": 8453,
      "말하며": 8454,
      "삶이": 8455,
      "샌드": 8456,
      "속도가": 8457,
      "용어는": 8458,
      "원리를": 8459,
      "율은": 8460,
      "혁명": 8461,
      "수열의": 8462,
      "리어": 8463,
      "부를": 8464,
      "북한": 8465,
      "야채": 8466,
      "자율": 8467,
      "문제들을": 8468,
      "도시에": 8469,
      "어렵게": 8470,
      "형성하는": 8471,
      "얘기해": 8472,
      "관해서": 8473,
      "바빠": 8474,
      "팁을": 8475,
      "프란": 8476,
      "적으로는": 8477,
      "2019": 8478,
      "보고서를": 8479,
      "조금씩": 8480,
      "공유할": 8481,
      "어린이가": 8482,
      "느낌이야": 8483,
      "메뉴를": 8484,
      "1인": 8485,
      "다만": 8486,
      "맞고": 8487,
      "알기": 8488,
      "화합": 8489,
      "날씨와": 8490,
      "추론과": 8491,
      "기쁘게": 8492,
      "ML": 8493,
      "되세요": 8494,
      "리면": 8495,
      "쌍을": 8496,
      "줄일": 8497,
      "지름": 8498,
      "통찰": 8499,
      "서비스의": 8500,
      "여행이": 8501,
      "솔루션": 8502,
      "상담을": 8503,
      "가능하다고": 8504,
      "수정된": 8505,
      "동사의": 8506,
      "그룹의": 8507,
      "차가운": 8508,
      "수동태로": 8509,
      "2입니다": 8510,
      "She": 8511,
      "많고": 8512,
      "방식에": 8513,
      "성인": 8514,
      "싶을": 8515,
      "역할이": 8516,
      "어떠한가요": 8517,
      "time": 8518,
      "식료품": 8519,
      "BC": 8520,
      "거라": 8521,
      "맑은": 8522,
      "번도": 8523,
      "있겠다": 8524,
      "조리": 8525,
      "으로서": 8526,
      "questions": 8527,
      "먹으러": 8528,
      "존경": 8529,
      "제공드릴": 8530,
      "단어입니다": 8531,
      "생성하기": 8532,
      "날짜에": 8533,
      "묘사합니다": 8534,
      "text": 8535,
      "ven": 8536,
      "준수": 8537,
      "타입": 8538,
      "도와주는": 8539,
      "사용하시는": 8540,
      "경제에": 8541,
      "상관없이": 8542,
      "진심으로": 8543,
      "가기로": 8544,
      "동등": 8545,
      "러스": 8546,
      "편해": 8547,
      "쇼핑몰": 8548,
      "공화국": 8549,
      "구하기": 8550,
      "노인이": 8551,
      "바지를": 8552,
      "프로젝트가": 8553,
      "알려주지": 8554,
      "개와": 8555,
      "뭐예요": 8556,
      "아아": 8557,
      "안의": 8558,
      "퇴적": 8559,
      "확인하기": 8560,
      "가족들": 8561,
      "기쁨을": 8562,
      "Wor": 8563,
      "버터": 8564,
      "번화한": 8565,
      "옆집": 8566,
      "트럭": 8567,
      "알려주시기": 8568,
      "사과의": 8569,
      "출력하는": 8570,
      "시험에": 8571,
      "정의가": 8572,
      "개요": 8573,
      "구역": 8574,
      "맞어": 8575,
      "이력": 8576,
      "지며": 8577,
      "사용되며": 8578,
      "연결되어": 8579,
      "기다려": 8580,
      "이하로": 8581,
      "ub": 8582,
      "알았": 8583,
      "언을": 8584,
      "저지": 8585,
      "채우": 8586,
      "자동화": 8587,
      "최적화": 8588,
      "행운을": 8589,
      ".'": 8590,
      "구현": 8591,
      "변이": 8592,
      "살기": 8593,
      "시가": 8594,
      "원활": 8595,
      "기다리는": 8596,
      "지정합니다": 8597,
      "핀란드어로": 8598,
      "스케이트": 8599,
      "엄격": 8600,
      "외에도": 8601,
      "창립": 8602,
      "통신": 8603,
      "스포츠를": 8604,
      "아내에게": 8605,
      "시장에서": 8606,
      "우승한": 8607,
      "가리키는": 8608,
      "못하게": 8609,
      "싸워서": 8610,
      "개인이": 8611,
      "ook": 8612,
      "간접적으로": 8613,
      "뇌의": 8614,
      "다운": 8615,
      "마시는": 8616,
      "유머": 8617,
      "장으로": 8618,
      "절망": 8619,
      "출판": 8620,
      "것이라도": 8621,
      "수학에": 8622,
      "하면서도": 8623,
      "로봇이": 8624,
      "la": 8625,
      "가본": 8626,
      "자들의": 8627,
      "번역해주실": 8628,
      "2022년": 8629,
      "반영하는": 8630,
      "wr": 8631,
      "교환": 8632,
      "일들이": 8633,
      "음악적": 8634,
      "과정이": 8635,
      "제곱근": 8636,
      "2의": 8637,
      "글머리": 8638,
      "냈어": 8639,
      "답해주세요": 8640,
      "점이나": 8641,
      "크시겠어요": 8642,
      "숫자로": 8643,
      "학생들에게": 8644,
      "고민이시군요": 8645,
      "개혁": 8646,
      "나름": 8647,
      "달은": 8648,
      "속이": 8649,
      "아예": 8650,
      "암이": 8651,
      "스포츠는": 8652,
      "업무가": 8653,
      "전문으로": 8654,
      "둘러싸": 8655,
      "라스": 8656,
      "피트": 8657,
      "해에": 8658,
      "불안하시겠어요": 8659,
      "안내해": 8660,
      "몰랐어": 8661,
      "ir": 8662,
      "심리적": 8663,
      "여쭤": 8664,
      "열린": 8665,
      "와일": 8666,
      "분석해야": 8667,
      "2018": 8668,
      "아이들과": 8669,
      "세계대전": 8670,
      "검색해": 8671,
      "일본식": 8672,
      "장치나": 8673,
      "됐는데": 8674,
      "세를": 8675,
      "소금": 8676,
      "언덕": 8677,
      "물어보는": 8678,
      "축구의": 8679,
      "환영합니다": 8680,
      "tell": 8681,
      "몸도": 8682,
      "믿고": 8683,
      "포트": 8684,
      "확보": 8685,
      "할머니가": 8686,
      "스케줄": 8687,
      "ho": 8688,
      "ter": 8689,
      "사합니다": 8690,
      "쉬고": 8691,
      "생각하세요": 8692,
      "답변하거나": 8693,
      "독특하고": 8694,
      "여름에": 8695,
      "Ali": 8696,
      "공백": 8697,
      "노인": 8698,
      "대사": 8699,
      "듣기": 8700,
      "면역": 8701,
      "소개를": 8702,
      "암에": 8703,
      "해고": 8704,
      "이해와": 8705,
      "ther": 8706,
      "해석하고": 8707,
      "나무는": 8708,
      "자유와": 8709,
      "면접에서": 8710,
      "버전을": 8711,
      "고르": 8712,
      "분홍": 8713,
      "살았어": 8714,
      "연필": 8715,
      "채워": 8716,
      "사용을": 8717,
      "가족들에게": 8718,
      "가치와": 8719,
      "최적의": 8720,
      "드레스를": 8721,
      "맛있게": 8722,
      "신호": 8723,
      "트랙": 8724,
      "싶으신": 8725,
      "사용자를": 8726,
      "마그마가": 8727,
      "남을": 8728,
      "많지": 8729,
      "말해주시면": 8730,
      "속도는": 8731,
      "테리아": 8732,
      "선택하고": 8733,
      "뉴스에서": 8734,
      "축구를": 8735,
      "고양이의": 8736,
      "보는데": 8737,
      "쓰지": 8738,
      "인종": 8739,
      "편견": 8740,
      "어땠어요": 8741,
      "Person": 8742,
      "주어를": 8743,
      "188": 8744,
      "따뜻하게": 8745,
      "동료가": 8746,
      "의심": 8747,
      "제2차": 8748,
      "조치": 8749,
      "스트리": 8750,
      "이름으로": 8751,
      "192": 8752,
      "지원이": 8753,
      "잠재적": 8754,
      "연주하고": 8755,
      "대사를": 8756,
      "앞서": 8757,
      "예의": 8758,
      "정서": 8759,
      "폐로": 8760,
      "설명적인": 8761,
      "잠재력을": 8762,
      "자격증": 8763,
      "국이": 8764,
      "기쁜": 8765,
      "독서": 8766,
      "시작해": 8767,
      "학교를": 8768,
      "부드럽게": 8769,
      "된다는": 8770,
      "이별": 8771,
      "지루": 8772,
      "드리는데": 8773,
      "아니라고": 8774,
      "시작하고": 8775,
      "일정이": 8776,
      "가까이": 8777,
      "도덕적으로": 8778,
      "1일에": 8779,
      "달이": 8780,
      "먼트": 8781,
      "오픈": 8782,
      "원문": 8783,
      "한국어로도": 8784,
      "고객이": 8785,
      "이유에": 8786,
      "공부하는": 8787,
      "효과에": 8788,
      "있어서요": 8789,
      "알려주신": 8790,
      "애플리케이션을": 8791,
      "공기를": 8792,
      "돼요": 8793,
      "틀랜드": 8794,
      "행정": 8795,
      "AI의": 8796,
      "입력에": 8797,
      "저에게는": 8798,
      "정렬하세요": 8799,
      "예로": 8800,
      "일자리": 8801,
      "설명해드릴게요": 8802,
      "해결하고자": 8803,
      "시작한": 8804,
      "일어났": 8805,
      "노래는": 8806,
      "표시합니다": 8807,
      "생명을": 8808,
      "문구가": 8809,
      "재배열하여": 8810,
      "곤충": 8811,
      "다투": 8812,
      "막혀": 8813,
      "상위": 8814,
      "생일이": 8815,
      "고객을": 8816,
      "사망했습니다": 8817,
      "순간을": 8818,
      "spe": 8819,
      "같을": 8820,
      "담당": 8821,
      "이들": 8822,
      "하듯이": 8823,
      "해석될": 8824,
      "존재합니다": 8825,
      "보면서": 8826,
      "친구들이랑": 8827,
      "연습하고": 8828,
      "물체가": 8829,
      "구분된": 8830,
      "시카고": 8831,
      "더운": 8832,
      "미침": 8833,
      "에이": 8834,
      "생각하지": 8835,
      "상호작용을": 8836,
      "느끼셨군요": 8837,
      "성공할": 8838,
      "나열하십시오": 8839,
      "움직이는": 8840,
      "로빈": 8841,
      "전을": 8842,
      "컴퓨터가": 8843,
      "스웨덴": 8844,
      "었고": 8845,
      "영원": 8846,
      "계산할": 8847,
      "제안해": 8848,
      "장소입니다": 8849,
      "언급하고": 8850,
      "요인이": 8851,
      "하셨는지": 8852,
      "정답으로": 8853,
      "Translation": 8854,
      "나갈": 8855,
      "엔터": 8856,
      "유행": 8857,
      "점수": 8858,
      "ank": 8859,
      "관리가": 8860,
      "퇴직을": 8861,
      "꽃이": 8862,
      "내장": 8863,
      "제외": 8864,
      "쪽이": 8865,
      "화창한": 8866,
      "영화관": 8867,
      "결혼하고": 8868,
      "노력하는": 8869,
      "학생의": 8870,
      "실제로는": 8871,
      "싫어하는": 8872,
      "물체에": 8873,
      "쓰레기": 8874,
      "활성화": 8875,
      "벌어": 8876,
      "보완": 8877,
      "상은": 8878,
      "서양": 8879,
      "신고": 8880,
      "우리를": 8881,
      "이어질": 8882,
      "★★★★★": 8883,
      "명절": 8884,
      "승객": 8885,
      "씨앗": 8886,
      "적게": 8887,
      "점수가": 8888,
      "정교": 8889,
      "지불": 8890,
      "티켓": 8891,
      "찾아볼": 8892,
      "파악할": 8893,
      "사용자님을": 8894,
      "under": 8895,
      "1에서": 8896,
      "tur": 8897,
      "냐고": 8898,
      "보게": 8899,
      "부패": 8900,
      "일할": 8901,
      "사용법": 8902,
      "다양성과": 8903,
      "요소에": 8904,
      "배우기": 8905,
      "중심으로": 8906,
      "겠지만": 8907,
      "뜨거운": 8908,
      "라엘": 8909,
      "맞았어": 8910,
      "않다는": 8911,
      "전부": 8912,
      "평점을": 8913,
      "항을": 8914,
      "답변드리겠습니다": 8915,
      "해결하려고": 8916,
      "사회를": 8917,
      "이스라엘": 8918,
      "프로그램이": 8919,
      "undred": 8920,
      "메달을": 8921,
      "감기": 8922,
      "머리를": 8923,
      "색상을": 8924,
      "원리": 8925,
      "종합": 8926,
      "행동과": 8927,
      "재밌는": 8928,
      "강조하는": 8929,
      "시도해": 8930,
      "World": 8931,
      "강은": 8932,
      "대는": 8933,
      "대규모": 8934,
      "부럽": 8935,
      "서머": 8936,
      "blem": 8937,
      "겠다고": 8938,
      "꿈이": 8939,
      "맞나요": 8940,
      "반대로": 8941,
      "완화": 8942,
      "웨이": 8943,
      "추구": 8944,
      "상황은": 8945,
      "않아도": 8946,
      "예상됩니다": 8947,
      "동의어로": 8948,
      "이루어져": 8949,
      "전문가로서": 8950,
      "글자를": 8951,
      "드러": 8952,
      "시조는": 8953,
      "예라고": 8954,
      "일까": 8955,
      "자금": 8956,
      "컨텍스트를": 8957,
      "관련해서": 8958,
      "생물학": 8959,
      "적어주세요": 8960,
      ".)": 8961,
      "박테리아": 8962,
      "이웃": 8963,
      "일기": 8964,
      "직무": 8965,
      "타인": 8966,
      "생각의": 8967,
      "고마워요": 8968,
      "x의": 8969,
      "되므로": 8970,
      "방을": 8971,
      "알을": 8972,
      "중독": 8973,
      "즈를": 8974,
      "해질": 8975,
      "problem": 8976,
      "동작을": 8977,
      "경향이": 8978,
      "되니": 8979,
      "유산": 8980,
      "이랑": 8981,
      "있으셨군요": 8982,
      "세부사항": 8983,
      "당황스러": 8984,
      "끊임없이": 8985,
      "기독": 8986,
      "시인가요": 8987,
      "아기": 8988,
      "언젠": 8989,
      "평가할": 8990,
      "가격에": 8991,
      "사실입니다": 8992,
      "상태입니다": 8993,
      "샐러드": 8994,
      "WH": 8995,
      "신용": 8996,
      "여성은": 8997,
      "해안": 8998,
      "허탈": 8999,
      "화성": 9000,
      "hen": 9001,
      "기기에서": 9002,
      "기독교": 9003,
      "마주": 9004,
      "세가": 9005,
      "직각": 9006,
      "치지": 9007,
      "작성해야": 9008,
      "좋아해요": 9009,
      "게임에서": 9010,
      "일부를": 9011,
      "물질을": 9012,
      "et": 9013,
      "고맙": 9014,
      "께끼": 9015,
      "앱에서": 9016,
      "외롭고": 9017,
      "통치": 9018,
      "기술적인": 9019,
      "학습하고": 9020,
      "비교하고": 9021,
      "수수께끼": 9022,
      "병을": 9023,
      "인기를": 9024,
      "회화": 9025,
      "궁금하신": 9026,
      "유전적": 9027,
      "강조합니다": 9028,
      "거리가": 9029,
      "저런": 9030,
      "중요성에": 9031,
      "이해합니다": 9032,
      "표현할까요": 9033,
      "미치고": 9034,
      "엔터테인": 9035,
      "꽃을": 9036,
      "실수로": 9037,
      "안보": 9038,
      "인내": 9039,
      "젠테이": 9040,
      "트릭": 9041,
      "목적어": 9042,
      "프레젠테이": 9043,
      "꿈은": 9044,
      "손상": 9045,
      "시거나": 9046,
      "실현": 9047,
      "에스": 9048,
      "자금을": 9049,
      "함수의": 9050,
      "주시는": 9051,
      "미안한": 9052,
      "일부는": 9053,
      "향상시킬": 9054,
      "그랬어": 9055,
      "갑작스러운": 9056,
      "와일드": 9057,
      "turn": 9058,
      "1일입니다": 9059,
      "king": 9060,
      "난다": 9061,
      "리듬": 9062,
      "붉은": 9063,
      "커플": 9064,
      "음식의": 9065,
      "보트는": 9066,
      "em": 9067,
      "메인": 9068,
      "자리가": 9069,
      "분홍색": 9070,
      "ss": 9071,
      "금지": 9072,
      "돈은": 9073,
      "분은": 9074,
      "파스타": 9075,
      "ous": 9076,
      "가능하게": 9077,
      "트윗의": 9078,
      "이론은": 9079,
      "소한": 9080,
      "손에": 9081,
      "의식의": 9082,
      "입원": 9083,
      "주목": 9084,
      "가지지": 9085,
      "그래픽": 9086,
      "방정식은": 9087,
      "인사말을": 9088,
      "세기에": 9089,
      "키스": 9090,
      "학년": 9091,
      "날씨나": 9092,
      "영화나": 9093,
      "변화의": 9094,
      "어떠셨나요": 9095,
      "목표가": 9096,
      "pee": 9097,
      "개발에": 9098,
      "conver": 9099,
      "마찬가지로": 9100,
      "BA": 9101,
      "보건": 9102,
      "좋겠네요": 9103,
      "다음으로": 9104,
      "드리려면": 9105,
      "많은데": 9106,
      "나누면": 9107,
      "가져다": 9108,
      "expres": 9109,
      "프란시스": 9110,
      "국립": 9111,
      "믿어": 9112,
      "유로": 9113,
      "이것": 9114,
      "포지션": 9115,
      "정보만": 9116,
      "필수적입니다": 9117,
      "이후로": 9118,
      "높다고": 9119,
      "담은": 9120,
      "올려": 9121,
      "왜냐": 9122,
      "줬어": 9123,
      "함에": 9124,
      "번역한": 9125,
      "작품에": 9126,
      "한번도": 9127,
      "바꾸는": 9128,
      "부정적입니다": 9129,
      "채식주의": 9130,
      "있으니까": 9131,
      "컴퓨터를": 9132,
      "보유하고": 9133,
      "급여": 9134,
      "심지어": 9135,
      "진정": 9136,
      "한대": 9137,
      "인공지능입니다": 9138,
      "일어나서": 9139,
      "Yip": 9140,
      "꿈에": 9141,
      "놀아": 9142,
      "마라": 9143,
      "매혹": 9144,
      "웃음": 9145,
      "으신가요": 9146,
      "의지": 9147,
      "파란": 9148,
      "요즘에": 9149,
      "부분이나": 9150,
      "작업이": 9151,
      "분야를": 9152,
      "교육의": 9153,
      "인기있는": 9154,
      "진술을": 9155,
      "세상에서": 9156,
      "Yippee": 9157,
      "나가서": 9158,
      "유대": 9159,
      "기능에": 9160,
      "나타나는": 9161,
      "언급하지": 9162,
      "다행이다": 9163,
      "pt": 9164,
      "방영": 9165,
      "선은": 9166,
      "실질": 9167,
      "우연": 9168,
      "자체": 9169,
      "좋아하시나요": 9170,
      "아이들은": 9171,
      "가정할": 9172,
      "가리키": 9173,
      "불러일으": 9174,
      "윤리적으로": 9175,
      "유익한": 9176,
      "일련의": 9177,
      "주소": 9178,
      "초등": 9179,
      "요약합니다": 9180,
      "환경과": 9181,
      "남편은": 9182,
      "흥미롭고": 9183,
      "크리스마": 9184,
      "오스트": 9185,
      "우가": 9186,
      "워드": 9187,
      "인물의": 9188,
      "탁월한": 9189,
      "여기는": 9190,
      "싶으세요": 9191,
      "국가에서": 9192,
      "힘들다": 9193,
      "예상치": 9194,
      "간결한": 9195,
      "해변에서": 9196,
      "가봤어": 9197,
      "본질을": 9198,
      "브리": 9199,
      "상식": 9200,
      "임의": 9201,
      "조던": 9202,
      "중으로": 9203,
      "바람에": 9204,
      "작가의": 9205,
      "달성하기": 9206,
      "co": 9207,
      "그릇": 9208,
      "나니": 9209,
      "멜로": 9210,
      "명소": 9211,
      "보낸": 9212,
      "북극": 9213,
      "제국의": 9214,
      "건강하게": 9215,
      "사랑의": 9216,
      "올바른지": 9217,
      "단락의": 9218,
      "형성합니다": 9219,
      "불편해": 9220,
      "금요일": 9221,
      "남극": 9222,
      "내의": 9223,
      "잡힌": 9224,
      "제공하려면": 9225,
      "영화입니다": 9226,
      "사랑이": 9227,
      "뛰어넘": 9228,
      "100까지의": 9229,
      "산소는": 9230,
      "무서운": 9231,
      "같고": 9232,
      "넓이는": 9233,
      "달라는": 9234,
      "레이스": 9235,
      "오타": 9236,
      "10까지의": 9237,
      "국가가": 9238,
      "let": 9239,
      "연구하는": 9240,
      "정도인가요": 9241,
      "바닥에": 9242,
      "베트남": 9243,
      "되길": 9244,
      "백만": 9245,
      "범주에": 9246,
      "전달하고": 9247,
      "날짜는": 9248,
      "괴롭히는": 9249,
      "어시스턴트라서": 9250,
      "마이클": 9251,
      "아닐까": 9252,
      "1차": 9253,
      "받으면": 9254,
      "불립니다": 9255,
      "없었어": 9256,
      "진실": 9257,
      "그러지": 9258,
      "여자는": 9259,
      "추출하세요": 9260,
      "num": 9261,
      "나치": 9262,
      "놓은": 9263,
      "달리는": 9264,
      "만의": 9265,
      "생일을": 9266,
      "생물의": 9267,
      "악의": 9268,
      "설명드리겠습니다": 9269,
      "제시해주셔야": 9270,
      "적절하게": 9271,
      "온라인에서": 9272,
      "요인들이": 9273,
      "회의를": 9274,
      "사람들도": 9275,
      "stand": 9276,
      "사무실": 9277,
      "3개를": 9278,
      "면허": 9279,
      "방해": 9280,
      "자본": 9281,
      "회색": 9282,
      "입력합니다": 9283,
      "처리하고": 9284,
      "않으시군요": 9285,
      "해변에": 9286,
      "그로브": 9287,
      "90": 9288,
      "간에": 9289,
      "골라": 9290,
      "박쥐": 9291,
      "세우": 9292,
      "고려하고": 9293,
      "나타낼": 9294,
      "선생님은": 9295,
      "변호": 9296,
      "보다는": 9297,
      "써보세요": 9298,
      "어플": 9299,
      "유추": 9300,
      "체중": 9301,
      "팀원": 9302,
      "언어인가요": 9303,
      "접근하는": 9304,
      "친구와의": 9305,
      "오빠가": 9306,
      "신기하다": 9307,
      "가에": 9308,
      "거리에": 9309,
      "고용": 9310,
      "마셔": 9311,
      "받기": 9312,
      "장점은": 9313,
      "점입니다": 9314,
      "추워": 9315,
      "엄마랑": 9316,
      "궁금하신지": 9317,
      "도심에": 9318,
      "루미": 9319,
      "가족의": 9320,
      "근처에서": 9321,
      "시험에서": 9322,
      "이라크": 9323,
      "FA": 9324,
      "걸렸": 9325,
      "구리": 9326,
      "마당": 9327,
      "운반": 9328,
      "치게": 9329,
      "위치나": 9330,
      "파티에": 9331,
      "엔지니어": 9332,
      "호랑이": 9333,
      "가사": 9334,
      "부사": 9335,
      "사러": 9336,
      "상업": 9337,
      "쓰면": 9338,
      "형은": 9339,
      "확신": 9340,
      "맞아요": 9341,
      "그만두": 9342,
      "갈등": 9343,
      "운이": 9344,
      "질문하고": 9345,
      "사용되고": 9346,
      "있어도": 9347,
      "지금부터": 9348,
      "음악에": 9349,
      "환경적": 9350,
      "보여주세요": 9351,
      "취업에": 9352,
      "배경은": 9353,
      "재구성하세요": 9354,
      "어떡하지": 9355,
      "모자": 9356,
      "출발": 9357,
      "친척": 9358,
      "행렬": 9359,
      "지정해": 9360,
      "은퇴를": 9361,
      "차이점을": 9362,
      "정체성을": 9363,
      "hundred": 9364,
      "거기에": 9365,
      "답하기": 9366,
      "부의": 9367,
      "어깨": 9368,
      "여야": 9369,
      "선택에": 9370,
      "물어보고": 9371,
      "피닉스": 9372,
      "갈등이": 9373,
      "그곳에서": 9374,
      "알겠어": 9375,
      "저기": 9376,
      "당신과": 9377,
      "수정이": 9378,
      "주장은": 9379,
      "우승을": 9380,
      "귀여워": 9381,
      "면에서": 9382,
      "소재": 9383,
      "시장의": 9384,
      "참여하고": 9385,
      "배경을": 9386,
      "자녀를": 9387,
      "괜찮아요": 9388,
      "good": 9389,
      "쉽고": 9390,
      "이직": 9391,
      "접한": 9392,
      "취소": 9393,
      "분석합니다": 9394,
      "주변에서": 9395,
      "하늘에": 9396,
      "name": 9397,
      "계시군요": 9398,
      "다툼": 9399,
      "외에": 9400,
      "음료를": 9401,
      "해줄": 9402,
      "제안합니다": 9403,
      "신체의": 9404,
      "25파운드": 9405,
      "겨울에": 9406,
      "암시적": 9407,
      "일관된": 9408,
      "스위스": 9409,
      "달콤한": 9410,
      "객체": 9411,
      "외계": 9412,
      "자들에게": 9413,
      "도와드릴게요": 9414,
      "서비스는": 9415,
      "동물에": 9416,
      "산업의": 9417,
      "가능하다면": 9418,
      "0년에": 9419,
      "근본": 9420,
      "글쓰기": 9421,
      "데리고": 9422,
      "미가": 9423,
      "용돈을": 9424,
      "포터": 9425,
      "이야기가": 9426,
      "예술의": 9427,
      "무시하는": 9428,
      "화장품": 9429,
      "GPS": 9430,
      "book": 9431,
      "가도": 9432,
      "관절": 9433,
      "밝게": 9434,
      "특이": 9435,
      "회로": 9436,
      "제공해주실": 9437,
      "기다리": 9438,
      "조건이": 9439,
      "pr": 9440,
      "게이": 9441,
      "끼고": 9442,
      "되나": 9443,
      "뒤로": 9444,
      "벤치": 9445,
      "써서": 9446,
      "팀을": 9447,
      "세계에": 9448,
      "동안의": 9449,
      "알려주실래요": 9450,
      "장소에서": 9451,
      "과거에": 9452,
      "기타를": 9453,
      "강아지가": 9454,
      "맞춤형": 9455,
      "스러우시겠어요": 9456,
      "버거킹": 9457,
      "확인하시거나": 9458,
      "^^": 9459,
      "내로": 9460,
      "말하자면": 9461,
      "소인수": 9462,
      "수입니다": 9463,
      "아리": 9464,
      "올린": 9465,
      "크기가": 9466,
      "답변하겠습니다": 9467,
      "좋아한다": 9468,
      "위치와": 9469,
      "설명해드리겠습니다": 9470,
      "얼마입니까": 9471,
      "일정한": 9472,
      "시각적": 9473,
      "편집합니다": 9474,
      "가르쳐": 9475,
      "리스트를": 9476,
      "def": 9477,
      "때로는": 9478,
      "레스토랑은": 9479,
      "아래와": 9480,
      "미래는": 9481,
      "흥미를": 9482,
      "화장실": 9483,
      "understand": 9484,
      "lou": 9485,
      "글쎄": 9486,
      "련된": 9487,
      "배를": 9488,
      "복을": 9489,
      "부러": 9490,
      "익스프": 9491,
      "향후": 9492,
      "상황에서는": 9493,
      "좋을까": 9494,
      "해석이": 9495,
      "30분": 9496,
      "제한이": 9497,
      "ERE": 9498,
      "WHERE": 9499,
      "익스프레스": 9500,
      "1일": 9501,
      "불어": 9502,
      "제목과": 9503,
      "분위기가": 9504,
      ")?": 9505,
      "A는": 9506,
      "개교": 9507,
      "더한": 9508,
      "오징": 9509,
      "특수": 9510,
      "경험은": 9511,
      "사과가": 9512,
      "강화하는": 9513,
      "대회에서": 9514,
      "하셔도": 9515,
      "아르바이트": 9516,
      "면이": 9517,
      "인사를": 9518,
      "쳤어": 9519,
      "쾌한": 9520,
      "포착": 9521,
      "설명에서": 9522,
      "선택해야": 9523,
      "자연을": 9524,
      "떨어지는": 9525,
      "형성됩니다": 9526,
      "연애를": 9527,
      "플랫폼을": 9528,
      "버전은": 9529,
      "하이쿠를": 9530,
      "cri": 9531,
      "free": 9532,
      "넣고": 9533,
      "다중": 9534,
      "디저": 9535,
      "싸우는": 9536,
      "이후에": 9537,
      "토요일": 9538,
      "그녀를": 9539,
      "경제학": 9540,
      "발전으로": 9541,
      "엄청난": 9542,
      "미치나요": 9543,
      "면접을": 9544,
      "증거가": 9545,
      "평화로운": 9546,
      "솔직히": 9547,
      "프란시스코": 9548,
      "가벼": 9549,
      "강수": 9550,
      "관이": 9551,
      "내기": 9552,
      "생기는": 9553,
      "있죠": 9554,
      "설명해줄": 9555,
      "return": 9556,
      "알아보세요": 9557,
      "전체적인": 9558,
      "한계가": 9559,
      "가운데": 9560,
      "구가": 9561,
      "명제": 9562,
      "웠는데": 9563,
      "하겠다": 9564,
      "이야기에": 9565,
      "여행은": 9566,
      "업데이트가": 9567,
      "우울하시군요": 9568,
      "존중하고": 9569,
      "카테고리로": 9570,
      "목적으로": 9571,
      "배려": 9572,
      "식기": 9573,
      "이중": 9574,
      "적극적으로": 9575,
      "향상시키고": 9576,
      "구매할": 9577,
      "구분합니다": 9578,
      "가을이": 9579,
      "성능을": 9580,
      "초조해": 9581,
      "레드": 9582,
      "속담을": 9583,
      "싫은": 9584,
      "작고": 9585,
      "남자를": 9586,
      "0년대": 9587,
      "하던데": 9588,
      "챔피언십": 9589,
      "3으로": 9590,
      "권의": 9591,
      "소수는": 9592,
      "않거나": 9593,
      "의식을": 9594,
      "즐겨": 9595,
      "태평": 9596,
      "했더니": 9597,
      "위치하여": 9598,
      "이야기는": 9599,
      "정도면": 9600,
      "연주하는": 9601,
      "빈칸에": 9602,
      "방식은": 9603,
      "산성": 9604,
      "가지가": 9605,
      "정도의": 9606,
      "안전하고": 9607,
      "v1을": 9608,
      "시장에": 9609,
      "원래의": 9610,
      "왕따를": 9611,
      "could": 9612,
      "갈까": 9613,
      "감과": 9614,
      "바퀴": 9615,
      "불사": 9616,
      "시야": 9617,
      "식량": 9618,
      "유치": 9619,
      "주머니": 9620,
      "텍스트나": 9621,
      "가족들과": 9622,
      "인간에게": 9623,
      "바꾸고": 9624,
      "촉진하는": 9625,
      "클래식": 9626,
      "들로": 9627,
      "샀는데": 9628,
      "소식이": 9629,
      "인디": 9630,
      "지리": 9631,
      "키울": 9632,
      "회계": 9633,
      "설명하듯이": 9634,
      "시는지": 9635,
      "지구는": 9636,
      "않는다는": 9637,
      "성격이": 9638,
      "정당화될": 9639,
      "같다고": 9640,
      "곰팡": 9641,
      "브로": 9642,
      "상이": 9643,
      "앨런": 9644,
      "잘하고": 9645,
      "엄마한테": 9646,
      "부족해서": 9647,
      "대통령이": 9648,
      "대기하고": 9649,
      "명령을": 9650,
      "사업을": 9651,
      "5를": 9652,
      "기지": 9653,
      "꾸는": 9654,
      "주관적인": 9655,
      "편한": 9656,
      "형식을": 9657,
      "자신에게": 9658,
      "유명합니다": 9659,
      "현실을": 9660,
      "독립을": 9661,
      "비밀번호를": 9662,
      "멜로디": 9663,
      "apple": 9664,
      "들었는데": 9665,
      "스릴": 9666,
      "악화": 9667,
      "예문을": 9668,
      "장단": 9669,
      "정해": 9670,
      "트위": 9671,
      "문법적": 9672,
      "무역": 9673,
      "사기": 9674,
      "선형": 9675,
      "소속": 9676,
      "시고": 9677,
      "야근": 9678,
      "목표에": 9679,
      "생물학적": 9680,
      "않으므로": 9681,
      "미소를": 9682,
      "북미": 9683,
      "분수": 9684,
      "상에서": 9685,
      "색은": 9686,
      "일상을": 9687,
      "주위에": 9688,
      "추가할": 9689,
      "명시적으로": 9690,
      "러시아어": 9691,
      "미드서머": 9692,
      "객관식": 9693,
      "단위": 9694,
      "빠진": 9695,
      "었기": 9696,
      "짝남": 9697,
      "후의": 9698,
      "결과로": 9699,
      "결과라고": 9700,
      "사이트를": 9701,
      "상태로": 9702,
      "Yes": 9703,
      "넣어": 9704,
      "들리": 9705,
      "빛나고": 9706,
      "았다": 9707,
      "하기는": 9708,
      "학교의": 9709,
      "자동차를": 9710,
      "바람을": 9711,
      "morning": 9712,
      "->": 9713,
      "1을": 9714,
      "ud": 9715,
      "객체를": 9716,
      "불리는": 9717,
      "했나": 9718,
      "요청하는": 9719,
      "장소가": 9720,
      "사건은": 9721,
      "유럽의": 9722,
      "하늘이": 9723,
      "미치며": 9724,
      "수영을": 9725,
      "+]": 9726,
      "늘어": 9727,
      "영혼": 9728,
      "칼로": 9729,
      "친구도": 9730,
      "개념은": 9731,
      "역사에서": 9732,
      "얻으실": 9733,
      "두려우시군요": 9734,
      "정리해": 9735,
      "도구로": 9736,
      "프랑스어입니다": 9737,
      "무거운": 9738,
      "숙제": 9739,
      "시퀀": 9740,
      "싶었는데": 9741,
      "없나": 9742,
      "찾았습니다": 9743,
      "취할": 9744,
      "코끼": 9745,
      "후보": 9746,
      "사용하도록": 9747,
      "위해선": 9748,
      "주요한": 9749,
      "요청하고": 9750,
      "성공하기": 9751,
      "풀어주실": 9752,
      "산업은": 9753,
      "성격을": 9754,
      "적어도": 9755,
      "놀이터": 9756,
      "모니터링": 9757,
      "[+]": 9758,
      "more": 9759,
      "것입니까": 9760,
      "받게": 9761,
      "손가락": 9762,
      "잘할": 9763,
      "햄버거": 9764,
      "2012": 9765,
      "어디가": 9766,
      "서로의": 9767,
      "출력으로": 9768,
      "구조에": 9769,
      "작품이": 9770,
      "물체를": 9771,
      "거리에서": 9772,
      "아이스크림을": 9773,
      "내세요": 9774,
      "독창": 9775,
      "범주로": 9776,
      "설문": 9777,
      "소문자를": 9778,
      "중단": 9779,
      "웹사이트의": 9780,
      "공원을": 9781,
      "전쟁은": 9782,
      "전쟁에서": 9783,
      "방향을": 9784,
      "1인당": 9785,
      "오징어": 9786,
      "가벼운": 9787,
      "NBA": 9788,
      "산맥": 9789,
      "분석에": 9790,
      "진행하고": 9791,
      "진술이": 9792,
      "교수님": 9793,
      "깊었던": 9794,
      "노출": 9795,
      "마인": 9796,
      "분자": 9797,
      "이르기": 9798,
      "자바": 9799,
      "지능이": 9800,
      "환경의": 9801,
      "제품은": 9802,
      "모델의": 9803,
      "2로": 9804,
      "높이기": 9805,
      "맛볼": 9806,
      "아가": 9807,
      "연쇄": 9808,
      "지갑": 9809,
      "창작": 9810,
      "현재까지": 9811,
      "대화에": 9812,
      "서비스가": 9813,
      "괜찮을": 9814,
      "가정하면": 9815,
      "받으시는군요": 9816,
      "부는": 9817,
      "슬라": 9818,
      "실내": 9819,
      "아기가": 9820,
      "양이": 9821,
      "캠페인": 9822,
      "한심": 9823,
      "가족친화적": 9824,
      "태어났으며": 9825,
      "확인해보시는": 9826,
      "누구인지": 9827,
      "작동하지": 9828,
      "중이신가요": 9829,
      "부끄러워": 9830,
      "과도한": 9831,
      "간식": 9832,
      "방에서": 9833,
      "생길": 9834,
      "일의": 9835,
      "도움에": 9836,
      "좋아하는데": 9837,
      "다양하게": 9838,
      "따르는": 9839,
      "따뜻하고": 9840,
      "계시나요": 9841,
      "덴마크": 9842,
      "보조": 9843,
      "약이": 9844,
      "여서": 9845,
      "지문에서": 9846,
      "털이": 9847,
      "함과": 9848,
      "사람으로": 9849,
      "해결책은": 9850,
      "않는다": 9851,
      "연결을": 9852,
      "원인을": 9853,
      "걱정되시겠어요": 9854,
      "에세이를": 9855,
      "ive": 9856,
      "바지": 9857,
      "피자를": 9858,
      "헌법": 9859,
      "수학을": 9860,
      "2014": 9861,
      "하나가": 9862,
      "만들었나요": 9863,
      "보내세요": 9864,
      "연결하는": 9865,
      "사람들과의": 9866,
      "우울증이": 9867,
      "모험을": 9868,
      "브라우저에서": 9869,
      "분위기에서": 9870,
      "가의": 9871,
      "드시나요": 9872,
      "서버": 9873,
      "액체": 9874,
      "제도": 9875,
      "클레": 9876,
      "계획은": 9877,
      "요리법": 9878,
      "발견되는": 9879,
      "자식들": 9880,
      "장면에": 9881,
      "실험을": 9882,
      "간주됩니다": 9883,
      "출신입니다": 9884,
      "과에": 9885,
      "비빔": 9886,
      "울타": 9887,
      "AI이기": 9888,
      "여부에": 9889,
      "평소에": 9890,
      "조용히": 9891,
      "If": 9892,
      "X는": 9893,
      "up": 9894,
      "건너": 9895,
      "말하지": 9896,
      "불가": 9897,
      "스테이": 9898,
      "신비": 9899,
      "싶어하는": 9900,
      "배열을": 9901,
      "대표적인": 9902,
      "rase": 9903,
      "경력": 9904,
      "경로": 9905,
      "고백": 9906,
      "먹이를": 9907,
      "방어": 9908,
      "잉글": 9909,
      "제기": 9910,
      "트럼": 9911,
      "좋아해서": 9912,
      "really": 9913,
      "평가하고": 9914,
      "되었다고": 9915,
      "즐거움": 9916,
      "스마트폰이나": 9917,
      "누군가에게": 9918,
      "밝히십시오": 9919,
      "phrase": 9920,
      "매혹적인": 9921,
      "이르기까지": 9922,
      "mi": 9923,
      "딱히": 9924,
      "먹었습니다": 9925,
      "별이": 9926,
      "삶에서": 9927,
      "스에서": 9928,
      "태풍": 9929,
      "피크": 9930,
      "했군요": 9931,
      "번역하려는": 9932,
      "느끼진": 9933,
      "물어보": 9934,
      "역사는": 9935,
      "수업에서": 9936,
      "미팅": 9937,
      "바르": 9938,
      "보드를": 9939,
      "불의": 9940,
      "소중한": 9941,
      "장치를": 9942,
      "창문": 9943,
      "알려주는": 9944,
      "추천합니다": 9945,
      "기준을": 9946,
      "일치하는": 9947,
      "비트": 9948,
      "샌프란시스코": 9949,
      "악기에": 9950,
      "외교": 9951,
      "지컬": 9952,
      "쳤습니다": 9953,
      "질문인지": 9954,
      "외국어": 9955,
      "트렌드": 9956,
      "듯한": 9957,
      "말입니다": 9958,
      "어어": 9959,
      "있겠습니다": 9960,
      "탄소를": 9961,
      "혐오": 9962,
      "선택했습니다": 9963,
      "아이들을": 9964,
      "도와드리려면": 9965,
      "미쳤습니다": 9966,
      "no": 9967,
      "공평": 9968,
      "빠져": 9969,
      "용어로": 9970,
      "큽니다": 9971,
      "판별": 9972,
      "번역하거나": 9973,
      "보여요": 9974,
      "정의는": 9975,
      "has": 9976,
      "꿉니다": 9977,
      "너의": 9978,
      "바꿉니다": 9979,
      "연산": 9980,
      "지남에": 9981,
      "질량": 9982,
      "했었어": 9983,
      "들어갑니다": 9984,
      "경험한": 9985,
      "재료로": 9986,
      "가리킵니다": 9987,
      "블록을": 9988,
      "휴대폰을": 9989,
      "크리켓": 9990,
      "연예인": 9991,
      "고전": 9992,
      "군의": 9993,
      "날의": 9994,
      "매출": 9995,
      "색이": 9996,
      "위기에": 9997,
      "제공됩니다": 9998,
      "중요성은": 9999,
      "힘드네": 10000,
      "보여서": 10001,
      "출력은": 10002,
      "역사적인": 10003,
      "컴퓨터의": 10004,
      "성장하고": 10005,
      "구절에": 10006,
      "____": 10007,
      "여쭤봐도": 10008,
      "왜냐하면": 10009,
      "눈물": 10010,
      "신화": 10011,
      "점으로": 10012,
      "호기": 10013,
      "저녁을": 10014,
      "시리즈에서": 10015,
      "수상한": 10016,
      "경로를": 10017,
      "될지": 10018,
      "전파": 10019,
      "답변하세요": 10020,
      "텍스트로": 10021,
      "이야기해주실": 10022,
      "교육에": 10023,
      "업무에": 10024,
      "질투가": 10025,
      "친근한": 10026,
      "실질적인": 10027,
      "달리기": 10028,
      "울고": 10029,
      "제시하는": 10030,
      "아버지는": 10031,
      "대회는": 10032,
      "올림픽에서": 10033,
      "cat": 10034,
      "대소문자를": 10035,
      "모으": 10036,
      "미네": 10037,
      "써야": 10038,
      "언론": 10039,
      "오븐": 10040,
      "한글을": 10041,
      "문제든": 10042,
      "생각했는데": 10043,
      "단어들의": 10044,
      "중요하게": 10045,
      "해결책": 10046,
      "감정적": 10047,
      "아빠는": 10048,
      "수업에": 10049,
      "안정성을": 10050,
      "보장하는": 10051,
      "끝나": 10052,
      "몰라서": 10053,
      "밖으로": 10054,
      "상당한": 10055,
      "세울": 10056,
      "세척": 10057,
      "풍경을": 10058,
      "형식의": 10059,
      "자신감이": 10060,
      "미래가": 10061,
      "비교하는": 10062,
      "정책에": 10063,
      "My": 10064,
      "fo": 10065,
      "간식을": 10066,
      "곳과": 10067,
      "느낀": 10068,
      "되니까": 10069,
      "들판": 10070,
      "여지가": 10071,
      "은하": 10072,
      "제시한": 10073,
      "이제부터": 10074,
      "ort": 10075,
      "경제적인": 10076,
      "신뢰를": 10077,
      "판단하는": 10078,
      "공전": 10079,
      "알맞은": 10080,
      "자체가": 10081,
      "창문을": 10082,
      "철학적": 10083,
      "헨티": 10084,
      "사실적인": 10085,
      "이번에도": 10086,
      "공식적으로": 10087,
      "집에만": 10088,
      "특징이": 10089,
      "배경으로": 10090,
      "아르헨티": 10091,
      "2019년": 10092,
      "++": 10093,
      "그에게": 10094,
      "똑똑": 10095,
      "세우고": 10096,
      "응원": 10097,
      "이진": 10098,
      "좋죠": 10099,
      "환자의": 10100,
      "무엇이야": 10101,
      "중요하며": 10102,
      "some": 10103,
      "크기를": 10104,
      "모델이": 10105,
      "파악합니다": 10106,
      "물질이": 10107,
      "indow": 10108,
      "use": 10109,
      "거절": 10110,
      "권력을": 10111,
      "분께서": 10112,
      "크다고": 10113,
      "하자고": 10114,
      "아이디어에": 10115,
      "머신러닝": 10116,
      "convers": 10117,
      "마라톤": 10118,
      "궁극적으로": 10119,
      "마무리": 10120,
      "시행": 10121,
      "싸움": 10122,
      "용기를": 10123,
      "전망": 10124,
      "처벌": 10125,
      "이번엔": 10126,
      "기반하여": 10127,
      "개선하기": 10128,
      "판매하는": 10129,
      "Fitzbillies는": 10130,
      "정교한": 10131,
      "[-": 10132,
      "거울": 10133,
      "세인": 10134,
      "압력": 10135,
      "잠이": 10136,
      "홀수": 10137,
      "우리집": 10138,
      "세부적인": 10139,
      "존재를": 10140,
      "요리에": 10141,
      "우울한": 10142,
      "유럽연합": 10143,
      "무게는": 10144,
      "끝나고": 10145,
      "라틴": 10146,
      "목관": 10147,
      "파크": 10148,
      "그래프": 10149,
      "표현된": 10150,
      "선택은": 10151,
      "감사드립니다": 10152,
      "결혼한": 10153,
      "나무에": 10154,
      "점심을": 10155,
      "보일": 10156,
      "부딪": 10157,
      "소외": 10158,
      "애틀": 10159,
      "더라도": 10160,
      "생활의": 10161,
      "학생들은": 10162,
      "선수들은": 10163,
      "작용하여": 10164,
      "기본적으로": 10165,
      "소설에": 10166,
      "물어봐도": 10167,
      "확률을": 10168,
      "공간이": 10169,
      "데뷔했습니다": 10170,
      "출처를": 10171,
      "끄는": 10172,
      "넷플": 10173,
      "노인정": 10174,
      "복수": 10175,
      "프롬": 10176,
      "중요하지": 10177,
      "이름의": 10178,
      "상황인지": 10179,
      "남편에게": 10180,
      "일본어로": 10181,
      "발견했습니다": 10182,
      "측정하는": 10183,
      "ways": 10184,
      "간호": 10185,
      "개통": 10186,
      "나눕": 10187,
      "눈썹": 10188,
      "뮤지컬": 10189,
      "식물을": 10190,
      "창단": 10191,
      "그러니": 10192,
      "요청합니다": 10193,
      "결정하세요": 10194,
      "종류가": 10195,
      "얼굴에": 10196,
      "친절하게": 10197,
      "참조하시는": 10198,
      "Can": 10199,
      "갈등을": 10200,
      "곡은": 10201,
      "공손": 10202,
      "답답해": 10203,
      "사면": 10204,
      "생명의": 10205,
      "약물": 10206,
      "인상을": 10207,
      "철저": 10208,
      "호르": 10209,
      "다양성": 10210,
      "아이의": 10211,
      "제안이": 10212,
      "식별하고": 10213,
      "이용하는": 10214,
      "연결된": 10215,
      "바람직": 10216,
      "알고리즘의": 10217,
      "세상이": 10218,
      "예정입니다": 10219,
      "워터맨은": 10220,
      "다룰": 10221,
      "소리는": 10222,
      "수능": 10223,
      "함이": 10224,
      "아래에서": 10225,
      "느껴지는": 10226,
      "패스트푸드를": 10227,
      "에어컨": 10228,
      "채식주의자": 10229,
      "걸리는": 10230,
      "밀가루": 10231,
      "빌리": 10232,
      "싶을까요": 10233,
      "애기": 10234,
      "언스": 10235,
      "친환경": 10236,
      "커서": 10237,
      "화폐": 10238,
      "에너지로": 10239,
      "v1에": 10240,
      "심해져서": 10241,
      "편집하여": 10242,
      "장기적으로": 10243,
      "되거나": 10244,
      "치면": 10245,
      "플롯": 10246,
      "혈류": 10247,
      "위치는": 10248,
      "국가에": 10249,
      "다가오는": 10250,
      "도우미이기": 10251,
      "독일의": 10252,
      "재킷을": 10253,
      "ust": 10254,
      "고독": 10255,
      "독수리": 10256,
      "드럼": 10257,
      "뜻이": 10258,
      "물에서": 10259,
      "셨다니": 10260,
      "얻은": 10261,
      "줘야": 10262,
      "침대": 10263,
      "케이스": 10264,
      "흔들": 10265,
      "들어간": 10266,
      "말씀을": 10267,
      "필요하다는": 10268,
      "컴퓨터는": 10269,
      "않을까요": 10270,
      "버스에": 10271,
      "드라마의": 10272,
      "로맨틱": 10273,
      "공무원": 10274,
      "HT": 10275,
      "경계": 10276,
      "동반": 10277,
      "문단": 10278,
      "버스를": 10279,
      "신혼": 10280,
      "아늑": 10281,
      "원한다면": 10282,
      "전류": 10283,
      "전시": 10284,
      "전기를": 10285,
      "줄거리": 10286,
      "팀에": 10287,
      "평온": 10288,
      "해주지": 10289,
      "환멸": 10290,
      "좋아하고": 10291,
      "표현에": 10292,
      "경우도": 10293,
      "되었을": 10294,
      "나라를": 10295,
      "변환해": 10296,
      "변환하는": 10297,
      "15일입니다": 10298,
      "싶은데요": 10299,
      "괴롭히": 10300,
      "conversation": 10301,
      "가볍": 10302,
      "당시의": 10303,
      "먹어서": 10304,
      "생생": 10305,
      "안되는": 10306,
      "연소": 10307,
      "인스타": 10308,
      "중고": 10309,
      "즈는": 10310,
      "티티": 10311,
      "제시할": 10312,
      "있었을": 10313,
      "발생했습니다": 10314,
      "개발하는": 10315,
      "재미가": 10316,
      "강화하고": 10317,
      "소리로": 10318,
      "솔루션을": 10319,
      "6의": 10320,
      "거북": 10321,
      "삶과": 10322,
      "상적인": 10323,
      "속으로": 10324,
      "여정": 10325,
      "중학교": 10326,
      "중요하다": 10327,
      "표현한": 10328,
      "음식과": 10329,
      "출력을": 10330,
      "문맥이": 10331,
      "비교하여": 10332,
      "캐릭터가": 10333,
      "충격을": 10334,
      "파티를": 10335,
      "태평양": 10336,
      "4개의": 10337,
      "MI": 10338,
      "검사를": 10339,
      "경기의": 10340,
      "논리를": 10341,
      "손으로": 10342,
      "으시군요": 10343,
      "포괄": 10344,
      "일정에": 10345,
      "상세하고": 10346,
      "날짜나": 10347,
      "EU": 10348,
      "글에": 10349,
      "동창": 10350,
      "뭐든지": 10351,
      "스튜": 10352,
      "원하세요": 10353,
      "잡는": 10354,
      "저와": 10355,
      "채팅": 10356,
      "향을": 10357,
      "love": 10358,
      "위험이": 10359,
      "연관되어": 10360,
      "체험하지": 10361,
      "근거한": 10362,
      "4를": 10363,
      "계세요": 10364,
      "곱셈": 10365,
      "군은": 10366,
      "많을": 10367,
      "번이나": 10368,
      "보편": 10369,
      "들어가": 10370,
      "사회적으로": 10371,
      "운동이": 10372,
      "수행합니다": 10373,
      "보냈습니다": 10374,
      "나쁘지": 10375,
      "cript": 10376,
      "나눕니다": 10377,
      "B가": 10378,
      "깜짝": 10379,
      "니즘": 10380,
      "두는": 10381,
      "못해요": 10382,
      "변하지": 10383,
      "복숭": 10384,
      "불리": 10385,
      "시기": 10386,
      "있긴": 10387,
      "중급": 10388,
      "추석": 10389,
      "아니며": 10390,
      "아이들에게": 10391,
      "시작했어": 10392,
      "환경이": 10393,
      "제품이": 10394,
      "되었고": 10395,
      "축구는": 10396,
      "아내를": 10397,
      "재밌게": 10398,
      "주인공의": 10399,
      "비빔밥": 10400,
      "급한": 10401,
      "변할": 10402,
      "본능": 10403,
      "삶은": 10404,
      "아시스턴트": 10405,
      "요점을": 10406,
      "자라는": 10407,
      "처한": 10408,
      "최우선": 10409,
      "클릭": 10410,
      "2011": 10411,
      "단계에도": 10412,
      "사실과": 10413,
      "적절히": 10414,
      "스타일로": 10415,
      "말해줄": 10416,
      "다녀왔어": 10417,
      "죄책감을": 10418,
      "아픈데": 10419,
      "나타내며": 10420,
      "버섯": 10421,
      "베리": 10422,
      "비로": 10423,
      "실천": 10424,
      "싶다는": 10425,
      "아기를": 10426,
      "사실이라고": 10427,
      "요소입니다": 10428,
      "복잡하고": 10429,
      "불편한": 10430,
      "swer": 10431,
      "그레이": 10432,
      "냉동": 10433,
      "불을": 10434,
      "운송": 10435,
      "조의": 10436,
      "짓는": 10437,
      "콜리": 10438,
      "알려드리겠습니다": 10439,
      "들어봤어": 10440,
      "과학의": 10441,
      "아무런": 10442,
      "일어나고": 10443,
      "증가하는": 10444,
      "희망을": 10445,
      "아름다움과": 10446,
      "Answer": 10447,
      "pub": 10448,
      "경치": 10449,
      "내면": 10450,
      "용기": 10451,
      "있네": 10452,
      "업데이트하는": 10453,
      "일본에서": 10454,
      "자동으로": 10455,
      "않으셨어요": 10456,
      "현대적인": 10457,
      "혁신을": 10458,
      "스크립트를": 10459,
      "nice": 10460,
      "po": 10461,
      "걸려서": 10462,
      "아쉬": 10463,
      "테러": 10464,
      "헬스": 10465,
      "미국인": 10466,
      "운동의": 10467,
      "이동하는": 10468,
      "만약에": 10469,
      "센터에": 10470,
      "very": 10471,
      "최초로": 10472,
      "월급이": 10473,
      "당황스러우시겠어요": 10474,
      "보라색": 10475,
      "ber": 10476,
      "가해": 10477,
      "가문의": 10478,
      "문단을": 10479,
      "의도를": 10480,
      "풀이를": 10481,
      "표현하세요": 10482,
      "자연스럽고": 10483,
      "계시다면": 10484,
      "답하고": 10485,
      "더하면": 10486,
      "모가": 10487,
      "없다면": 10488,
      "이룰": 10489,
      "주된": 10490,
      "참이면": 10491,
      "태도를": 10492,
      "헷갈": 10493,
      "드리려고": 10494,
      "정확합니다": 10495,
      "과학적으로": 10496,
      "요소로": 10497,
      "친절하고": 10498,
      "부담없이": 10499,
      "장기적인": 10500,
      "반짝이는": 10501,
      "국에": 10502,
      "눈치": 10503,
      "눈치를": 10504,
      "소가": 10505,
      "시드니": 10506,
      "신속": 10507,
      "햄스터": 10508,
      "설명에": 10509,
      "것이라는": 10510,
      "세부적으로": 10511,
      "기업에": 10512,
      "재능과": 10513,
      "서식지": 10514,
      "어조를": 10515,
      "To": 10516,
      "Window": 10517,
      "고혈압": 10518,
      "깔끔": 10519,
      "내각": 10520,
      "제로": 10521,
      "하느라": 10522,
      "작성되었습니다": 10523,
      "힘드셨겠어요": 10524,
      "고양이와": 10525,
      "미세먼지": 10526,
      "write": 10527,
      "개입니다": 10528,
      "동기를": 10529,
      "문구나": 10530,
      "믿지": 10531,
      "세우는": 10532,
      "센트": 10533,
      "심해서": 10534,
      "충성": 10535,
      "언제까지": 10536,
      "남편을": 10537,
      "보내시길": 10538,
      "인생을": 10539,
      "진로에": 10540,
      "등급은": 10541,
      "능숙": 10542,
      "드라이브": 10543,
      "버는": 10544,
      "장려": 10545,
      "적당한": 10546,
      "주얼": 10547,
      "정확성을": 10548,
      "개선하고": 10549,
      "선호도가": 10550,
      "링크를": 10551,
      "A가": 10552,
      "FC": 10553,
      "다소": 10554,
      "되지만": 10555,
      "드로": 10556,
      "브런": 10557,
      "작성에": 10558,
      "것이라면": 10559,
      "다양성은": 10560,
      "표현하기": 10561,
      "여기에는": 10562,
      "부분으로": 10563,
      "뉴스에": 10564,
      "186": 10565,
      "가져야": 10566,
      "하셨는데": 10567,
      "발표를": 10568,
      "취미를": 10569,
      "논쟁": 10570,
      "복용": 10571,
      "이들의": 10572,
      "찍고": 10573,
      "사이버": 10574,
      "부탁해요": 10575,
      "구성하는": 10576,
      "책임감": 10577,
      "이산화탄소를": 10578,
      "겼습니다": 10579,
      "벨기에": 10580,
      "연방": 10581,
      "진한": 10582,
      "탈출": 10583,
      "투명": 10584,
      "수학적으로": 10585,
      "사이트나": 10586,
      "구조가": 10587,
      "카테고리에": 10588,
      "상품을": 10589,
      "cur": 10590,
      "글라": 10591,
      "길에": 10592,
      "복사": 10593,
      "사샤": 10594,
      "서핑": 10595,
      "소중": 10596,
      "조사를": 10597,
      "천연": 10598,
      "햇살": 10599,
      "생각한": 10600,
      "시간이나": 10601,
      "설명해주시겠어요": 10602,
      "주장이": 10603,
      "배터리": 10604,
      "express": 10605,
      "gu": 10606,
      "간은": 10607,
      "들으면": 10608,
      "맞추는": 10609,
      "버려진": 10610,
      "불쌍": 10611,
      "수분": 10612,
      "아랍": 10613,
      "틀을": 10614,
      "사용하기": 10615,
      "아니에요": 10616,
      "시작하기": 10617,
      "전제에서": 10618,
      "그룹에": 10619,
      "책임이": 10620,
      "앞으로도": 10621,
      "참여하는": 10622,
      "놀라셨겠어요": 10623,
      "소개팅": 10624,
      "심리학": 10625,
      "트위터": 10626,
      "[-]": 10627,
      "결단": 10628,
      "낮아": 10629,
      "당해": 10630,
      "마디": 10631,
      "물품": 10632,
      "증발": 10633,
      "개인적": 10634,
      "경험하는": 10635,
      "기사는": 10636,
      "썼습니다": 10637,
      "주저": 10638,
      "킬로": 10639,
      "속상하고": 10640,
      "하늘에서": 10641,
      "그만두고": 10642,
      "이산화탄소가": 10643,
      "ily": 10644,
      "걸쳐": 10645,
      "글자": 10646,
      "나보고": 10647,
      "복습": 10648,
      "불가능한": 10649,
      "상심이": 10650,
      "죽겠어": 10651,
      "직사각형의": 10652,
      "지구에": 10653,
      "수준을": 10654,
      "모임에": 10655,
      "액세스할": 10656,
      "내림": 10657,
      "많다고": 10658,
      "비에": 10659,
      "악기를": 10660,
      "정사각형의": 10661,
      "큐브": 10662,
      "친구들의": 10663,
      "만들어졌습니다": 10664,
      "프로그램은": 10665,
      "앞으로의": 10666,
      "500": 10667,
      "벗어나": 10668,
      "로맨스": 10669,
      "(★": 10670,
      "7의": 10671,
      "B는": 10672,
      "고사": 10673,
      "누들": 10674,
      "맛있어": 10675,
      "습관을": 10676,
      "체스": 10677,
      "하키": 10678,
      "한계를": 10679,
      "카메라를": 10680,
      "궁금해하는": 10681,
      "능동태로": 10682,
      "호르몬": 10683,
      "개수를": 10684,
      "땅에": 10685,
      "모른": 10686,
      "벽을": 10687,
      "시칠": 10688,
      "주파": 10689,
      "푸드": 10690,
      "화요일": 10691,
      "친구분이": 10692,
      "우리도": 10693,
      "제시하십시오": 10694,
      "보내셨나요": 10695,
      "스트레스받아": 10696,
      "인도에서": 10697,
      "잘못한": 10698,
      "관광객": 10699,
      "시칠리아": 10700,
      "ment": 10701,
      "내리고": 10702,
      "데믹": 10703,
      "리다": 10704,
      "발사": 10705,
      "본인의": 10706,
      "싫다": 10707,
      "싸우고": 10708,
      "여성과": 10709,
      "음의": 10710,
      "이점": 10711,
      "팬데믹": 10712,
      "해설": 10713,
      "좋아져서": 10714,
      "국가대표": 10715,
      "노력합니다": 10716,
      "목적어를": 10717,
      "발견한": 10718,
      "추론에": 10719,
      "측면이": 10720,
      "정리하고": 10721,
      "발표했습니다": 10722,
      "발음은": 10723,
      "임의의": 10724,
      "클레어": 10725,
      "HTML": 10726,
      "인형": 10727,
      "체력이": 10728,
      "할당": 10729,
      "과학자들은": 10730,
      "자동차의": 10731,
      "기존의": 10732,
      "의문문": 10733,
      "피크닉": 10734,
      "것일까요": 10735,
      "관념": 10736,
      "난리": 10737,
      "들었어요": 10738,
      "마틴": 10739,
      "열역학": 10740,
      "인식을": 10741,
      "하시고": 10742,
      "미국은": 10743,
[...]
